{
  "<pad>": 0,
  "<unk>": 1,
  "!": 2,
  "!</w>": 3,
  "!?</w>": 4,
  "\"": 5,
  "\")</w>": 6,
  "\",</w>": 7,
  "\".</w>": 8,
  "\"</w>": 9,
  "\"ಅ": 10,
  "\"ಅಲ್": 11,
  "\"ಅಲ್ಲ": 12,
  "\"ಆ</w>": 13,
  "\"ಇ": 14,
  "\"ಈ": 15,
  "\"ಈ</w>": 16,
  "\"ಏ": 17,
  "\"ಏನು</w>": 18,
  "\"ಓ": 19,
  "\"ದುರ್ಗಾಸ್ತಮಾನ": 20,
  "\"ದುರ್ಗಾಸ್ತಮಾನ'</w>": 21,
  "\"ನನಗೆ</w>": 22,
  "\"ನನ್ನ</w>": 23,
  "\"ನಮ್ಮ</w>": 24,
  "\"ನಾ": 25,
  "\"ನಾಗರ": 26,
  "\"ನಾಗರಹಾವು": 27,
  "\"ನಾನು</w>": 28,
  "\"ನಿ": 29,
  "\"ನಿನು</w>": 30,
  "\"ನಿನ್ನ</w>": 31,
  "\"ನಿಮ್ಮ</w>": 32,
  "\"ನೀ": 33,
  "\"ನೀನು</w>": 34,
  "\"ನೀವು</w>": 35,
  "\"ನೋಡ": 36,
  "\"ನೋಡಿ</w>": 37,
  "\"ನೋಡು,</w>": 38,
  "\"ನೋಡು</w>": 39,
  "\"ಯಾ": 40,
  "\"ಯಾಕೆ</w>": 41,
  "\"ಹ": 42,
  "\"ಹಂಸಗೀತೆ": 43,
  "\"ಹಂಸಗೀತೆ'</w>": 44,
  "\"ಹಾಗ": 45,
  "\"ಹೋಗ": 46,
  "$": 47,
  "$</w>": 48,
  "%": 49,
  "%</w>": 50,
  "&": 51,
  "'": 52,
  "',</w>": 53,
  "'-": 54,
  "'--": 55,
  "'--</w>": 56,
  "'--ಎಂದು</w>": 57,
  "'-</w>": 58,
  "'.</w>": 59,
  "'</w>": 60,
  "'`</w>": 61,
  "'ದ</w>": 62,
  "'ಯ": 63,
  "'ಯ</w>": 64,
  "'ವನ್ನು</w>": 65,
  "(": 66,
  "(\"": 67,
  "(19": 68,
  "(196": 69,
  "(1</w>": 70,
  "(</w>": 71,
  "(«": 72,
  "(ಅ": 73,
  "(ಆ": 74,
  "(ಇ": 75,
  "(ಎಷ್ಟ": 76,
  "(ಎಷ್ಟು)</w>": 77,
  "(ಎಷ್ಟು</w>": 78,
  "(ಓ": 79,
  "(ಪ": 80,
  "(ಪ|</w>": 81,
  "(ವಿ": 82,
  "(ವಿಷ್ಟು)</w>": 83,
  "(ವಿಷ್ಣ": 84,
  "(ವಿಷ್ಣು)</w>": 85,
  "(ಶಿವ": 86,
  "(ಶಿವ)</w>": 87,
  "(೧೯": 88,
  "(೧೯೫": 89,
  "(೧೯೫೩": 90,
  "(೧೯೫೩)</w>": 91,
  "(೧೯೯": 92,
  "(೩</w>": 93,
  ")": 94,
  "),</w>": 95,
  ").</w>": 96,
  ")</w>": 97,
  "*": 98,
  "*-</w>": 99,
  "*</w>": 100,
  ",": 101,
  ",'</w>": 102,
  ",.</w>": 103,
  ",</w>": 104,
  "-": 105,
  "--": 106,
  "--</w>": 107,
  "--ಎಂದು</w>": 108,
  "-...</w>": 109,
  "-..</w>": 110,
  "-.</w>": 111,
  "-198": 112,
  "-</w>": 113,
  "-ಇ": 114,
  "-ಇ</w>": 115,
  "-ಇಎಂದು</w>": 116,
  "-ಈ</w>": 117,
  "-ಎಂದು</w>": 118,
  "-ನನ್ನ</w>": 119,
  "-ನಿ": 120,
  "-೪</w>": 121,
  ".": 122,
  ".'</w>": 123,
  ".)</w>": 124,
  ".,</w>": 125,
  ".-</w>": 126,
  "..": 127,
  "...": 128,
  "...'</w>": 129,
  "....": 130,
  "....'</w>": 131,
  "......</w>": 132,
  ".....</w>": 133,
  "....</w>": 134,
  "...</w>": 135,
  "...?</w>": 136,
  "...”</w>": 137,
  "..</w>": 138,
  "..”</w>": 139,
  ".</w>": 140,
  ".?</w>": 141,
  ".ಎ": 142,
  ".ಎಲ್‌": 143,
  ".ನ": 144,
  ".ಸಿ.</w>": 145,
  ".”</w>": 146,
  "/": 147,
  "/</w>": 148,
  "0": 149,
  "00": 150,
  "010": 151,
  "01</w>": 152,
  "08": 153,
  "0</w>": 154,
  "1": 155,
  "1)</w>": 156,
  "1.": 157,
  "1.</w>": 158,
  "1/": 159,
  "10": 160,
  "10</w>": 161,
  "11": 162,
  "110": 163,
  "111</w>": 164,
  "11</w>": 165,
  "12": 166,
  "12</w>": 167,
  "13": 168,
  "14": 169,
  "15": 170,
  "16": 171,
  "16</w>": 172,
  "17": 173,
  "18": 174,
  "18</w>": 175,
  "19": 176,
  "195": 177,
  "196": 178,
  "197": 179,
  "198": 180,
  "19</w>": 181,
  "1</w>": 182,
  "1ಅ॥</w>": 183,
  "1ಪ॥</w>": 184,
  "1೨</w>": 185,
  "1೨॥</w>": 186,
  "1೩": 187,
  "1೩</w>": 188,
  "1೪॥</w>": 189,
  "1೫</w>": 190,
  "1೫॥</w>": 191,
  "2": 192,
  "2)</w>": 193,
  "20": 194,
  "24": 195,
  "28": 196,
  "2</w>": 197,
  "3": 198,
  "3)</w>": 199,
  "30": 200,
  "38": 201,
  "3</w>": 202,
  "4": 203,
  "4)</w>": 204,
  "40": 205,
  "42": 206,
  "44</w>": 207,
  "46": 208,
  "47": 209,
  "4</w>": 210,
  "5": 211,
  "5)</w>": 212,
  "5</w>": 213,
  "6": 214,
  "66</w>": 215,
  "6</w>": 216,
  "7": 217,
  "70": 218,
  "7</w>": 219,
  "8": 220,
  "80": 221,
  "8</w>": 222,
  "9": 223,
  "9)</w>": 224,
  "9</w>": 225,
  ":": 226,
  ":</w>": 227,
  ";": 228,
  ";</w>": 229,
  "</w>": 230,
  "?": 231,
  "?\"</w>": 232,
  "?'-": 233,
  "?'</w>": 234,
  "?)</w>": 235,
  "?-": 236,
  "?-</w>": 237,
  "?</w>": 238,
  "??</w>": 239,
  "?”</w>": 240,
  "I": 241,
  "[": 242,
  "[</w>": 243,
  "]": 244,
  "]</w>": 245,
  "_": 246,
  "_</w>": 247,
  "_ಎಂದು</w>": 248,
  "`": 249,
  "`</w>": 250,
  "|": 251,
  "|</w>": 252,
  "||</w>": 253,
  "£": 254,
  "«": 255,
  "»": 256,
  "»</w>": 257,
  "।": 258,
  "।</w>": 259,
  "॥": 260,
  "॥</w>": 261,
  "॥ಅ": 262,
  "॥ಅ|": 263,
  "॥ಅ|॥</w>": 264,
  "॥ಅ।</w>": 265,
  "॥ಅ॥</w>": 266,
  "॥ಪ": 267,
  "॥ಪ</w>": 268,
  "॥ಪ|</w>": 269,
  "॥ಪ।</w>": 270,
  "॥ಪ॥</w>": 271,
  "॥ಷ": 272,
  "॥ಷ॥</w>": 273,
  "॥೧": 274,
  "॥೧॥</w>": 275,
  "॥೧೦॥</w>": 276,
  "॥೧೧॥</w>": 277,
  "॥೨": 278,
  "॥೨॥</w>": 279,
  "॥೩": 280,
  "॥೩.": 281,
  "॥೩.॥</w>": 282,
  "॥೩॥</w>": 283,
  "॥೪॥</w>": 284,
  "॥೫॥</w>": 285,
  "॥೬॥</w>": 286,
  "॥೭॥</w>": 287,
  "ಂ": 288,
  "ಂ\"</w>": 289,
  "ಂ,</w>": 290,
  "ಂ</w>": 291,
  "ಂಕ": 292,
  "ಂಕ</w>": 293,
  "ಂಕರ</w>": 294,
  "ಂಕಿ": 295,
  "ಂಕಿರುಗ": 296,
  "ಂಕಿರುಗಿ</w>": 297,
  "ಂಗ": 298,
  "ಂಗ</w>": 299,
  "ಂಗತ</w>": 300,
  "ಂಗಳ": 301,
  "ಂಗಳ</w>": 302,
  "ಂಗಳೂ": 303,
  "ಂಗಾ": 304,
  "ಂಗಾದ್ರೆ</w>": 305,
  "ಂಗಿ</w>": 306,
  "ಂಗು": 307,
  "ಂಗೆ": 308,
  "ಂಗೆ</w>": 309,
  "ಂಗ್": 310,
  "ಂಗ್‌</w>": 311,
  "ಂಘ": 312,
  "ಂಚ": 313,
  "ಂಚ</w>": 314,
  "ಂಚಿ": 315,
  "ಂಚಿನ</w>": 316,
  "ಂಜ": 317,
  "ಂಜನ</w>": 318,
  "ಂಜಿ": 319,
  "ಂಜಿ</w>": 320,
  "ಂಟ": 321,
  "ಂಟ</w>": 322,
  "ಂಟಾ": 323,
  "ಂಟು</w>": 324,
  "ಂಟೆ</w>": 325,
  "ಂಟ್‌</w>": 326,
  "ಂಡ": 327,
  "ಂಡ</w>": 328,
  "ಂಡಾ": 329,
  "ಂಡಿ": 330,
  "ಂಡು</w>": 331,
  "ಂಡೆ": 332,
  "ಂಡೆ</w>": 333,
  "ಂತ": 334,
  "ಂತ</w>": 335,
  "ಂತರ": 336,
  "ಂತರ</w>": 337,
  "ಂತಲೂ</w>": 338,
  "ಂತಹ</w>": 339,
  "ಂತಾ": 340,
  "ಂತಾಗಿ</w>": 341,
  "ಂತಾಯಿತು.</w>": 342,
  "ಂತಿ": 343,
  "ಂತಿ</w>": 344,
  "ಂತಿಕುಗಿ</w>": 345,
  "ಂತಿದ್ದ</w>": 346,
  "ಂತಿರುಗಿ</w>": 347,
  "ಂತಿಲ್ಲ.</w>": 348,
  "ಂತು</w>": 349,
  "ಂತೂ</w>": 350,
  "ಂತೆ,</w>": 351,
  "ಂತೆ.</w>": 352,
  "ಂತೆ</w>": 353,
  "ಂತೆಯೇ</w>": 354,
  "ಂತ್": 355,
  "ಂತ್ಯ": 356,
  "ಂತ್ರಿ": 357,
  "ಂಥ": 358,
  "ಂಥ</w>": 359,
  "ಂದ": 360,
  "ಂದ</w>": 361,
  "ಂದದಿ</w>": 362,
  "ಂದರೆ</w>": 363,
  "ಂದಾ": 364,
  "ಂದಿ": 365,
  "ಂದಿರ</w>": 366,
  "ಂದು": 367,
  "ಂದು,</w>": 368,
  "ಂದು</w>": 369,
  "ಂದೂ</w>": 370,
  "ಂದೇ</w>": 371,
  "ಂದ್": 372,
  "ಂದ್ರ": 373,
  "ಂದ್ರ</w>": 374,
  "ಂದ್ರಿಯ": 375,
  "ಂದ್ರಿಯ</w>": 376,
  "ಂಧ": 377,
  "ಂಧ</w>": 378,
  "ಂಪ": 379,
  "ಂಪು</w>": 380,
  "ಂಬ": 381,
  "ಂಬ</w>": 382,
  "ಂಬರ</w>": 383,
  "ಂಬಾ": 384,
  "ಂಬು": 385,
  "ಂಬುಜ": 386,
  "ಂಬುಜ</w>": 387,
  "ಂಬುದ": 388,
  "ಂಬುದು</w>": 389,
  "ಂಭ": 390,
  "ಂಭೀ": 391,
  "ಂಶ": 392,
  "ಂಶ</w>": 393,
  "ಂಸ": 394,
  "ಂಸಗೀತೆ": 395,
  "ಂ್‌</w>": 396,
  "ಂ”</w>": 397,
  "ಃ": 398,
  "ಃ</w>": 399,
  "ಅ": 400,
  "ಅ.ನ": 401,
  "ಅ.ನ.": 402,
  "ಅ.ನ.ಕೃ": 403,
  "ಅ.ನ.ಕೃ.</w>": 404,
  "ಅ</w>": 405,
  "ಅ॥</w>": 406,
  "ಅಂ": 407,
  "ಅಂಕ": 408,
  "ಅಂಗ": 409,
  "ಅಂಜ": 410,
  "ಅಂಟ": 411,
  "ಅಂಡ": 412,
  "ಅಂತ": 413,
  "ಅಂತ</w>": 414,
  "ಅಂತಹ</w>": 415,
  "ಅಂತಿ": 416,
  "ಅಂತೀ": 417,
  "ಅಂತೂ</w>": 418,
  "ಅಂತ್ಯ": 419,
  "ಅಂಥ": 420,
  "ಅಂಥ</w>": 421,
  "ಅಂದ": 422,
  "ಅಂದ.</w>": 423,
  "ಅಂದ</w>": 424,
  "ಅಂದರೆ</w>": 425,
  "ಅಂದಳು.</w>": 426,
  "ಅಂದಿನ</w>": 427,
  "ಅಂದಿನಿಂದ</w>": 428,
  "ಅಂದು</w>": 429,
  "ಅಂದುಕೊಂಡ": 430,
  "ಅಂದುಕೊಂಡು</w>": 431,
  "ಅಂದುಕೊಳ್ಳ": 432,
  "ಅಂದ್ರೆ</w>": 433,
  "ಅಂಧ": 434,
  "ಅಂಬ": 435,
  "ಅಂಬು": 436,
  "ಅಂಬುಜ": 437,
  "ಅಂಬುಜಾ</w>": 438,
  "ಅಂಶ</w>": 439,
  "ಅಕಾ": 440,
  "ಅಕಾಡೆ": 441,
  "ಅಕಾರಾದಿ</w>": 442,
  "ಅಕ್": 443,
  "ಅಕ್ಕ": 444,
  "ಅಕ್ಕ</w>": 445,
  "ಅಕ್ಷ": 446,
  "ಅಕ್ಷಯ</w>": 447,
  "ಅಕ್ಷರ": 448,
  "ಅಕ್ಷರ</w>": 449,
  "ಅಗ": 450,
  "ಅಗತ್ಯ": 451,
  "ಅಗತ್ಯ</w>": 452,
  "ಅಗಸ್": 453,
  "ಅಗಾ": 454,
  "ಅಗಾಂತ": 455,
  "ಅಗಾಂತರ</w>": 456,
  "ಅಗ್": 457,
  "ಅಗ್ನಿ</w>": 458,
  "ಅಗ್ರ": 459,
  "ಅಚ್ಚ": 460,
  "ಅಚ್ಚು": 461,
  "ಅಚ್ಚು</w>": 462,
  "ಅಚ್ಚುಕಟ್ಟ": 463,
  "ಅಚ್ಯ": 464,
  "ಅಜ": 465,
  "ಅಜಮಿ": 466,
  "ಅಜೀ": 467,
  "ಅಜ್": 468,
  "ಅಜ್ಜಿ": 469,
  "ಅಜ್ಜಿ</w>": 470,
  "ಅಟತಾಳ</w>": 471,
  "ಅಟ್ಟ": 472,
  "ಅಡ": 473,
  "ಅಡಗ": 474,
  "ಅಡಿ": 475,
  "ಅಡಿ</w>": 476,
  "ಅಡಿಗ": 477,
  "ಅಡಿಯ": 478,
  "ಅಡುಗೆ</w>": 479,
  "ಅಡ್": 480,
  "ಅಡ್ಡ": 481,
  "ಅಡ್ಡಾ": 482,
  "ಅಣು": 483,
  "ಅಣ್ಣ": 484,
  "ಅಣ್ಣ</w>": 485,
  "ಅಣ್ಣನ</w>": 486,
  "ಅತನ</w>": 487,
  "ಅತಿ": 488,
  "ಅತಿ</w>": 489,
  "ಅತಿಥಿ": 490,
  "ಅತೀ": 491,
  "ಅತ್ತ": 492,
  "ಅತ್ತ</w>": 493,
  "ಅತ್ತಿ": 494,
  "ಅತ್ತಿಗೆ</w>": 495,
  "ಅತ್ತಿತ್ತ</w>": 496,
  "ಅತ್ತೆ</w>": 497,
  "ಅತ್ತೆಯ</w>": 498,
  "ಅತ್ಯ": 499,
  "ಅತ್ಯಂತ</w>": 500,
  "ಅಥ": 501,
  "ಅಥವಾ</w>": 502,
  "ಅದ": 503,
  "ಅದಕೆ</w>": 504,
  "ಅದಕ್ಕಾಗಿ</w>": 505,
  "ಅದಕ್ಕಿಂತ</w>": 506,
  "ಅದಕ್ಕೂ</w>": 507,
  "ಅದಕ್ಕೆ</w>": 508,
  "ಅದನ್ನು</w>": 509,
  "ಅದನ್ನೇ</w>": 510,
  "ಅದರ</w>": 511,
  "ಅದರಲ್ಲ": 512,
  "ಅದರಲ್ಲಿ</w>": 513,
  "ಅದರಲ್ಲೂ</w>": 514,
  "ಅದರಿಂದ</w>": 515,
  "ಅದರಿಂದಾಗಿ</w>": 516,
  "ಅದರೆ</w>": 517,
  "ಅದಾ": 518,
  "ಅದು": 519,
  "ಅದು.</w>": 520,
  "ಅದು</w>": 521,
  "ಅದುವ": 522,
  "ಅದುವರೆಗೂ</w>": 523,
  "ಅದೂ</w>": 524,
  "ಅದೆ": 525,
  "ಅದೆಲ್ಲ</w>": 526,
  "ಅದೆಷ್ಟು</w>": 527,
  "ಅದೇ": 528,
  "ಅದೇ</w>": 529,
  "ಅದೇನು</w>": 530,
  "ಅದ್": 531,
  "ಅದ್ಭು": 532,
  "ಅದ್ಭುತ</w>": 533,
  "ಅದ್ವೈ": 534,
  "ಅಧ": 535,
  "ಅಧಿ": 536,
  "ಅಧಿಕ</w>": 537,
  "ಅಧಿಕಾ": 538,
  "ಅಧಿಕಾರ</w>": 539,
  "ಅಧಿಕಾರಿ": 540,
  "ಅಧಿಕಾರಿಗಳು</w>": 541,
  "ಅಧ್ಯ": 542,
  "ಅಧ್ಯಕ್ಷ": 543,
  "ಅಧ್ಯಕ್ಷತೆಯಲ್ಲಿ</w>": 544,
  "ಅಧ್ಯಯ": 545,
  "ಅಧ್ಯಯನ</w>": 546,
  "ಅಧ್ಯಾ": 547,
  "ಅಧ್ಯಾತ್ಮ": 548,
  "ಅಧ್ಯಾತ್ಮದ</w>": 549,
  "ಅಧ್ಯಾಪ": 550,
  "ಅನ": 551,
  "ಅನಂತ": 552,
  "ಅನಂದ": 553,
  "ಅನಕಾಶ": 554,
  "ಅನಕಾಶ</w>": 555,
  "ಅನಕೃ</w>": 556,
  "ಅನನ": 557,
  "ಅನನ</w>": 558,
  "ಅನನು</w>": 559,
  "ಅನರ": 560,
  "ಅನರ</w>": 561,
  "ಅನರನ್ನು</w>": 562,
  "ಅನರಿ": 563,
  "ಅನರಿಗೆ</w>": 564,
  "ಅನರು</w>": 565,
  "ಅನರೂ</w>": 566,
  "ಅನಾ": 567,
  "ಅನಾರೋ": 568,
  "ಅನಿ": 569,
  "ಅನಿಮಿ": 570,
  "ಅನಿರು": 571,
  "ಅನಿರುದ್ಧ": 572,
  "ಅನಿವಾ": 573,
  "ಅನಿಸ": 574,
  "ಅನಿಸಿ": 575,
  "ಅನಿಸಿತು.</w>": 576,
  "ಅನು": 577,
  "ಅನು</w>": 578,
  "ಅನುಕೂ": 579,
  "ಅನುಕೂಲ": 580,
  "ಅನುಕೂಲ</w>": 581,
  "ಅನುಗ್ರಹ": 582,
  "ಅನುಭ": 583,
  "ಅನುಭನ</w>": 584,
  "ಅನುಭವ": 585,
  "ಅನುಭವ</w>": 586,
  "ಅನುಭವವನ್ನು</w>": 587,
  "ಅನುಭವಿಸ": 588,
  "ಅನುಭಾವದ</w>": 589,
  "ಅನುವ": 590,
  "ಅನುವಾದ": 591,
  "ಅನುಸ": 592,
  "ಅನುಸರಿಸ": 593,
  "ಅನೇಕ</w>": 594,
  "ಅನ್": 595,
  "ಅನ್ನ": 596,
  "ಅನ್ನ</w>": 597,
  "ಅನ್ನು</w>": 598,
  "ಅನ್ನೊ</w>": 599,
  "ಅನ್ನೋ</w>": 600,
  "ಅನ್ನೋದು</w>": 601,
  "ಅನ್ಯ": 602,
  "ಅಪ": 603,
  "ಅಪರ": 604,
  "ಅಪಾ": 605,
  "ಅಪಾರ</w>": 606,
  "ಅಪೇಕ್ಷ": 607,
  "ಅಪ್ಪ": 608,
  "ಅಪ್ಪ</w>": 609,
  "ಅಪ್ಪಣೆ</w>": 610,
  "ಅಪ್ಪನ</w>": 611,
  "ಅಭ": 612,
  "ಅಭಿ": 613,
  "ಅಭಿನಂದ": 614,
  "ಅಭಿನಂದನಾ</w>": 615,
  "ಅಭಿನಯ": 616,
  "ಅಭಿಪ್ರಾಯ": 617,
  "ಅಭಿಮಾನ": 618,
  "ಅಭಿಮಾನ</w>": 619,
  "ಅಭಿಮಾನಿ": 620,
  "ಅಭಿವ್ಯ": 621,
  "ಅಭಿವ್ಯಕ್ತ": 622,
  "ಅಭ್ಯ": 623,
  "ಅಭ್ಯಾ": 624,
  "ಅಭ್ಯಾಸ": 625,
  "ಅಭ್ಯಾಸ</w>": 626,
  "ಅಮರ": 627,
  "ಅಮೃ": 628,
  "ಅಮ್ಮ": 629,
  "ಅಮ್ಮು": 630,
  "ಅಯ್ಯ": 631,
  "ಅಯ್ಯಂಗಾ": 632,
  "ಅರ": 633,
  "ಅರವ": 634,
  "ಅರಸು</w>": 635,
  "ಅರಿ": 636,
  "ಅರಿತು</w>": 637,
  "ಅರಿಯ": 638,
  "ಅರೆ": 639,
  "ಅರ್": 640,
  "ಅರ್ಜು": 641,
  "ಅರ್ಜುನ</w>": 642,
  "ಅರ್ಜುನನ</w>": 643,
  "ಅರ್ತಿ</w>": 644,
  "ಅರ್ಥ": 645,
  "ಅರ್ಥ-</w>": 646,
  "ಅರ್ಥ</w>": 647,
  "ಅರ್ಥದಲ್ಲಿ</w>": 648,
  "ಅರ್ಥಮಾಡಿಕೊಳ್ಳ": 649,
  "ಅರ್ಥವಾಗ": 650,
  "ಅರ್ಥವೂ</w>": 651,
  "ಅರ್ಥಾತ್‌</w>": 652,
  "ಅರ್ಧ": 653,
  "ಅರ್ಧ</w>": 654,
  "ಅರ್ಪ": 655,
  "ಅಲ": 656,
  "ಅಲಂ": 657,
  "ಅಲಸೂ": 658,
  "ಅಲು": 659,
  "ಅಲೆ": 660,
  "ಅಲ್ಪ</w>": 661,
  "ಅಲ್ಲ": 662,
  "ಅಲ್ಲ,</w>": 663,
  "ಅಲ್ಲ.</w>": 664,
  "ಅಲ್ಲ</w>": 665,
  "ಅಲ್ಲದೆ,</w>": 666,
  "ಅಲ್ಲದೆ</w>": 667,
  "ಅಲ್ಲಲ್ಲಿ</w>": 668,
  "ಅಲ್ಲಿ</w>": 669,
  "ಅಲ್ಲಿಂದ</w>": 670,
  "ಅಲ್ಲಿಗೆ</w>": 671,
  "ಅಲ್ಲಿದ್ದ</w>": 672,
  "ಅಲ್ಲಿನ</w>": 673,
  "ಅಲ್ಲೇ</w>": 674,
  "ಅಳ": 675,
  "ಅಳಿ": 676,
  "ಅಳಿಯ": 677,
  "ಅಳಿಯ</w>": 678,
  "ಅಳೆಯ": 679,
  "ಅವ": 680,
  "ಅವ</w>": 681,
  "ಅವಕಾಶ": 682,
  "ಅವಕಾಶ</w>": 683,
  "ಅವತಾರ": 684,
  "ಅವತ್ತು</w>": 685,
  "ಅವನ</w>": 686,
  "ಅವನನ್ನು</w>": 687,
  "ಅವನಿ": 688,
  "ಅವನಿಗೆ</w>": 689,
  "ಅವನು</w>": 690,
  "ಅವರ": 691,
  "ಅವರ</w>": 692,
  "ಅವರನ್ನು</w>": 693,
  "ಅವರಲ್ಲಿ</w>": 694,
  "ಅವರಿ": 695,
  "ಅವರಿಂದ</w>": 696,
  "ಅವರಿಗೆ</w>": 697,
  "ಅವರು,</w>": 698,
  "ಅವರು.</w>": 699,
  "ಅವರು</w>": 700,
  "ಅವರೂ</w>": 701,
  "ಅವರೇ</w>": 702,
  "ಅವರೊಂದಿಗೆ</w>": 703,
  "ಅವಳ": 704,
  "ಅವಳ</w>": 705,
  "ಅವಳನ್ನು</w>": 706,
  "ಅವಳು</w>": 707,
  "ಅವು": 708,
  "ಅವು</w>": 709,
  "ಅವುಗಳ</w>": 710,
  "ಅವುಗಳಲ್ಲಿ</w>": 711,
  "ಅವ್": 712,
  "ಅವ್ವ</w>": 713,
  "ಅವ್‌": 714,
  "ಅಶ್": 715,
  "ಅಶ್ವ": 716,
  "ಅಶ್ವತ್": 717,
  "ಅಶ್ವತ್ಥ": 718,
  "ಅಷ್ಟ": 719,
  "ಅಷ್ಟಾ": 720,
  "ಅಷ್ಟು</w>": 721,
  "ಅಷ್ಟೇ</w>": 722,
  "ಅಸ": 723,
  "ಅಸೆ</w>": 724,
  "ಅಸ್": 725,
  "ಅಸ್ಟ": 726,
  "ಅಸ್ಟು</w>": 727,
  "ಅಸ್ಟೆ</w>": 728,
  "ಅಸ್ಟೇ</w>": 729,
  "ಅಸ್ಟ್ರ": 730,
  "ಅಸ್ಪ": 731,
  "ಅಹ": 732,
  "ಅಹಂ": 733,
  "ಅಹ್ವಾ": 734,
  "ಅಹ್ವಾನ</w>": 735,
  "ಅ೦": 736,
  "ಅ೦ತ": 737,
  "ಆ": 738,
  "ಆ</w>": 739,
  "ಆಂ": 740,
  "ಆಕರ್": 741,
  "ಆಕರ್ಷ": 742,
  "ಆಕಾಶ": 743,
  "ಆಕಾಶ</w>": 744,
  "ಆಕಾಶವಾ": 745,
  "ಆಕಾಶವಾಣ": 746,
  "ಆಕೆ</w>": 747,
  "ಆಗ": 748,
  "ಆಗ</w>": 749,
  "ಆಗಮ": 750,
  "ಆಗಮ</w>": 751,
  "ಆಗಲಿ,</w>": 752,
  "ಆಗಲಿ</w>": 753,
  "ಆಗಲಿಲ್ಲ.</w>": 754,
  "ಆಗಲೇ</w>": 755,
  "ಆಗಾ": 756,
  "ಆಗಾಗ</w>": 757,
  "ಆಗಿ": 758,
  "ಆಗಿ</w>": 759,
  "ಆಗಿತ್ತು.</w>": 760,
  "ಆಗಿದ್ದ</w>": 761,
  "ಆಗಿದ್ದರು.</w>": 762,
  "ಆಗಿನ</w>": 763,
  "ಆಗಿರ": 764,
  "ಆಗುತ್ತ": 765,
  "ಆಗೋ": 766,
  "ಆಗ್": 767,
  "ಆಚರಣ": 768,
  "ಆಚರಿಸ": 769,
  "ಆಚೆ</w>": 770,
  "ಆಟ": 771,
  "ಆಟ</w>": 772,
  "ಆಡ": 773,
  "ಆಡಳಿತ": 774,
  "ಆಡಿ,</w>": 775,
  "ಆಡಿ</w>": 776,
  "ಆಡಿದ": 777,
  "ಆಡಿದ</w>": 778,
  "ಆಡ್": 779,
  "ಆತ": 780,
  "ಆತ</w>": 781,
  "ಆತಂ": 782,
  "ಆತಂಕ": 783,
  "ಆತಂಕ</w>": 784,
  "ಆತನ</w>": 785,
  "ಆತನಿಗೆ</w>": 786,
  "ಆತು": 787,
  "ಆತ್ಮ": 788,
  "ಆತ್ಮ</w>": 789,
  "ಆತ್ಮೀಯ": 790,
  "ಆತ್ಮೀಯ</w>": 791,
  "ಆದ": 792,
  "ಆದ</w>": 793,
  "ಆದರೂ</w>": 794,
  "ಆದರೆ</w>": 795,
  "ಆದರ್ಶ": 796,
  "ಆದಷ್ಟು</w>": 797,
  "ಆದಿ": 798,
  "ಆದಿ</w>": 799,
  "ಆದಿಕೇಶ": 800,
  "ಆದಿಕೇಶವ</w>": 801,
  "ಆದಿಕೇಶವನ</w>": 802,
  "ಆದಿತಾಳ</w>": 803,
  "ಆದಿಶೇಷ</w>": 804,
  "ಆದ್ದ": 805,
  "ಆದ್ದರಿಂದ</w>": 806,
  "ಆದ್ದರಿ೦ದ</w>": 807,
  "ಆದ್ರೆ</w>": 808,
  "ಆಧಾರ": 809,
  "ಆಧಾರ</w>": 810,
  "ಆಧು": 811,
  "ಆಧುನಿಕ</w>": 812,
  "ಆಧ್ಯಾ": 813,
  "ಆನಂದ": 814,
  "ಆನಂದ</w>": 815,
  "ಆನೆ</w>": 816,
  "ಆಪ್ತ": 817,
  "ಆಫೀ": 818,
  "ಆಮೇಲೆ</w>": 819,
  "ಆಯ": 820,
  "ಆಯಾಸ": 821,
  "ಆಯಿತು,</w>": 822,
  "ಆಯಿತು.</w>": 823,
  "ಆಯಿತು</w>": 824,
  "ಆಯು": 825,
  "ಆಯ್": 826,
  "ಆಯ್ತು</w>": 827,
  "ಆರ": 828,
  "ಆರಂಭ": 829,
  "ಆರಂಭವಾಯಿತು.</w>": 830,
  "ಆರಂಭಿಸಿದರು.</w>": 831,
  "ಆರಾ": 832,
  "ಆರಾಧ": 833,
  "ಆರಾಧ್ಯ": 834,
  "ಆರು</w>": 835,
  "ಆರೋ": 836,
  "ಆರೋಗ್ಯ": 837,
  "ಆರೋಗ್ಯ</w>": 838,
  "ಆರ್": 839,
  "ಆರ್‌,</w>": 840,
  "ಆರ್‌.</w>": 841,
  "ಆಲ": 842,
  "ಆಳ": 843,
  "ಆಳವಾಗಿ</w>": 844,
  "ಆವ": 845,
  "ಆವ</w>": 846,
  "ಆಶಯ": 847,
  "ಆಶಯ.</w>": 848,
  "ಆಶಯವನ್ನೊಳ": 849,
  "ಆಶೀ": 850,
  "ಆಶೀರ್": 851,
  "ಆಶೀರ್ವ": 852,
  "ಆಶೀರ್ವದ": 853,
  "ಆಶೀರ್ವಾದ</w>": 854,
  "ಆಶ್": 855,
  "ಆಶ್ಚ": 856,
  "ಆಶ್ಚರ್ಯ": 857,
  "ಆಶ್ರ": 858,
  "ಆಶ್ರಯ": 859,
  "ಆಸ": 860,
  "ಆಸಕ್": 861,
  "ಆಸಕ್ತಿ</w>": 862,
  "ಆಸೆ": 863,
  "ಆಸೆ</w>": 864,
  "ಆಸ್": 865,
  "ಆಸ್ಪ": 866,
  "ಆಸ್ಪತ್ರ": 867,
  "ಆಸ್ಪತ್ರೆಗೆ</w>": 868,
  "ಆಹ್ವಾ": 869,
  "ಆ೦": 870,
  "ಇ": 871,
  "ಇ.</w>": 872,
  "ಇ</w>": 873,
  "ಇಂಗ್": 874,
  "ಇಂಗ್ಲಿ": 875,
  "ಇಂಗ್ಲಿಷ್": 876,
  "ಇಂಗ್ಲೀ": 877,
  "ಇಂಗ್ಲೀಷ್‌</w>": 878,
  "ಇಂತ": 879,
  "ಇಂತಹ</w>": 880,
  "ಇಂಥ": 881,
  "ಇಂಥ</w>": 882,
  "ಇಂದ": 883,
  "ಇಂದಿ": 884,
  "ಇಂದಿಗೂ</w>": 885,
  "ಇಂದಿನ</w>": 886,
  "ಇಂದಿರಾ</w>": 887,
  "ಇಂದು</w>": 888,
  "ಇಂದೂ</w>": 889,
  "ಇಂದ್ರ": 890,
  "ಇಂದ್ರ</w>": 891,
  "ಇಂಬ": 892,
  "ಇಕ್ಕ": 893,
  "ಇಚ್ಛ": 894,
  "ಇಟ್ಟ": 895,
  "ಇಟ್ಟು</w>": 896,
  "ಇಡ": 897,
  "ಇಡೀ</w>": 898,
  "ಇತರ": 899,
  "ಇತರ</w>": 900,
  "ಇತಿಹಾ": 901,
  "ಇತಿಹಾಸದ</w>": 902,
  "ಇತ್ತ": 903,
  "ಇತ್ತ</w>": 904,
  "ಇತ್ತೀ": 905,
  "ಇತ್ತೀಚೆಗೆ</w>": 906,
  "ಇತ್ತು.</w>": 907,
  "ಇತ್ತು</w>": 908,
  "ಇತ್ಯಾ": 909,
  "ಇತ್ಯಾದಿ</w>": 910,
  "ಇದ": 911,
  "ಇದಕ್ಕೆ</w>": 912,
  "ಇದನ್ನು</w>": 913,
  "ಇದರ</w>": 914,
  "ಇದರಿಂದ</w>": 915,
  "ಇದೀಗ</w>": 916,
  "ಇದು": 917,
  "ಇದು.</w>": 918,
  "ಇದು</w>": 919,
  "ಇದೆ": 920,
  "ಇದೆ.</w>": 921,
  "ಇದೆ</w>": 922,
  "ಇದೆಲ್ಲ": 923,
  "ಇದೆಲ್ಲ</w>": 924,
  "ಇದೇ": 925,
  "ಇದೇ</w>": 926,
  "ಇದೊಂದು</w>": 927,
  "ಇದ್": 928,
  "ಇದ್ದ": 929,
  "ಇದ್ದ.</w>": 930,
  "ಇದ್ದ</w>": 931,
  "ಇದ್ದಕ್ಕ": 932,
  "ಇದ್ದಕ್ಕಿದ್ದ</w>": 933,
  "ಇದ್ದರು.</w>": 934,
  "ಇದ್ದರೆ</w>": 935,
  "ಇದ್ದಾ": 936,
  "ಇದ್ದು": 937,
  "ಇದ್ದು</w>": 938,
  "ಇದ್ದೂ</w>": 939,
  "ಇನ": 940,
  "ಇನರು</w>": 941,
  "ಇನ್": 942,
  "ಇನ್ನ": 943,
  "ಇನ್ನಷ್ಟು</w>": 944,
  "ಇನ್ನು</w>": 945,
  "ಇನ್ನೂ</w>": 946,
  "ಇನ್ನೆ": 947,
  "ಇನ್ನೇನು</w>": 948,
  "ಇನ್ನೊಂದ": 949,
  "ಇನ್ನೊಂದು</w>": 950,
  "ಇನ್ನೊಮ್ಮೆ</w>": 951,
  "ಇಪ್ಪ": 952,
  "ಇಪ್ಪತ್ತ": 953,
  "ಇಪ್ಪತ್ತು</w>": 954,
  "ಇಬ್ಬ": 955,
  "ಇಬ್ಬರ</w>": 956,
  "ಇಬ್ಬರು</w>": 957,
  "ಇಬ್ಬರೂ</w>": 958,
  "ಇರ": 959,
  "ಇರಲಿಲ್ಲ.</w>": 960,
  "ಇರಲಿಲ್ಲ</w>": 961,
  "ಇರು": 962,
  "ಇರುತ್ತ": 963,
  "ಇರುವ</w>": 964,
  "ಇರುವುದ": 965,
  "ಇರೋ": 966,
  "ಇಲಾಖ": 967,
  "ಇಲ್ಲ": 968,
  "ಇಲ್ಲ,</w>": 969,
  "ಇಲ್ಲ...</w>": 970,
  "ಇಲ್ಲ.</w>": 971,
  "ಇಲ್ಲ</w>": 972,
  "ಇಲ್ಲದ</w>": 973,
  "ಇಲ್ಲದೆ</w>": 974,
  "ಇಲ್ಲವೋ</w>": 975,
  "ಇಲ್ಲಿ": 976,
  "ಇಲ್ಲಿ</w>": 977,
  "ಇಲ್ಲಿಗೆ</w>": 978,
  "ಇಲ್ಲಿನ</w>": 979,
  "ಇಲ್ಲೇ</w>": 980,
  "ಇಳ": 981,
  "ಇಳಿ": 982,
  "ಇಳಿದ": 983,
  "ಇಳಿದು</w>": 984,
  "ಇಳಿಯ": 985,
  "ಇಳಿಸ": 986,
  "ಇವ": 987,
  "ಇವತ್ತು</w>": 988,
  "ಇವನ</w>": 989,
  "ಇವನಿಗೆ</w>": 990,
  "ಇವನು</w>": 991,
  "ಇವರ": 992,
  "ಇವರ</w>": 993,
  "ಇವರನ್ನು</w>": 994,
  "ಇವರಿ": 995,
  "ಇವರು</w>": 996,
  "ಇವಳು</w>": 997,
  "ಇವು": 998,
  "ಇವು</w>": 999,
  "ಇವುಗಳ</w>": 1000,
  "ಇವೆಲ್ಲ</w>": 1001,
  "ಇಷ್ಟ": 1002,
  "ಇಷ್ಟ</w>": 1003,
  "ಇಷ್ಟು</w>": 1004,
  "ಇಸ್ಕೂ": 1005,
  "ಇಸ್ಟ": 1006,
  "ಈ": 1007,
  "ಈ</w>": 1008,
  "ಈಗ": 1009,
  "ಈಗ</w>": 1010,
  "ಈಗಲೂ</w>": 1011,
  "ಈಚೆ</w>": 1012,
  "ಈಡಾ": 1013,
  "ಈತ</w>": 1014,
  "ಈರ": 1015,
  "ಈರಡಿ</w>": 1016,
  "ಈರೇಳು</w>": 1017,
  "ಈಶ್ವರ": 1018,
  "ಈಶ್ವರ</w>": 1019,
  "ಉ": 1020,
  "ಉಂಗು": 1021,
  "ಉಂಟ": 1022,
  "ಉಂಡ": 1023,
  "ಉಂಡು</w>": 1024,
  "ಉಕ್ಕ": 1025,
  "ಉಗಾ": 1026,
  "ಉಗಾಭೋಗ": 1027,
  "ಉಗು": 1028,
  "ಉಗ್ರ": 1029,
  "ಉಟ್ಟ": 1030,
  "ಉಟ್ಟ</w>": 1031,
  "ಉಡು": 1032,
  "ಉಡುಗೊ": 1033,
  "ಉಡುಪ": 1034,
  "ಉಣ": 1035,
  "ಉಣ್ಣ": 1036,
  "ಉತ್": 1037,
  "ಉತ್ತ": 1038,
  "ಉತ್ತಮ</w>": 1039,
  "ಉತ್ತರ": 1040,
  "ಉತ್ತರ</w>": 1041,
  "ಉತ್ಸಾಹ": 1042,
  "ಉತ್ಸಾಹ</w>": 1043,
  "ಉದಯ": 1044,
  "ಉದಯರಾಗ": 1045,
  "ಉದಯರಾಗಗಳು</w>": 1046,
  "ಉದಾ": 1047,
  "ಉದಾಹ": 1048,
  "ಉದಾಹರಣ": 1049,
  "ಉದಾಹರಣೆ": 1050,
  "ಉದಾಹರಣೆಗೆ</w>": 1051,
  "ಉದ್": 1052,
  "ಉದ್ದ": 1053,
  "ಉದ್ದೇಶ": 1054,
  "ಉನ್ನ": 1055,
  "ಉನ್ನತ</w>": 1056,
  "ಉಪ": 1057,
  "ಉಪನ್ಯಾ": 1058,
  "ಉಪಯೋಗ": 1059,
  "ಉಪವಾಸ": 1060,
  "ಉಪಾ": 1061,
  "ಉಪಾಧ್ಯಾಯ": 1062,
  "ಉಪ್ಪ": 1063,
  "ಉರ": 1064,
  "ಉರಗ": 1065,
  "ಉರಿ</w>": 1066,
  "ಉರಿಯ": 1067,
  "ಉರು": 1068,
  "ಉಳ": 1069,
  "ಉಳಿದ": 1070,
  "ಉಳಿದ</w>": 1071,
  "ಉಳಿದು</w>": 1072,
  "ಉಳಿಯ": 1073,
  "ಉಳ್ಳ": 1074,
  "ಉಸ": 1075,
  "ಉಸಿ": 1076,
  "ಉಸಿರು</w>": 1077,
  "ಊ": 1078,
  "ಊಟ": 1079,
  "ಊಟ,</w>": 1080,
  "ಊಟ</w>": 1081,
  "ಊಟಕ್ಕೆ</w>": 1082,
  "ಊಟದ</w>": 1083,
  "ಊರ": 1084,
  "ಊರ</w>": 1085,
  "ಊರಿ": 1086,
  "ಊರಿಗೆ</w>": 1087,
  "ಊರಿನ</w>": 1088,
  "ಊರಿನಲ್ಲ": 1089,
  "ಊರು": 1090,
  "ಊರು</w>": 1091,
  "ಊರ್": 1092,
  "ಊಹ": 1093,
  "ಊಹಿಸ": 1094,
  "ಋ": 1095,
  "ಎ": 1096,
  "ಎ...</w>": 1097,
  "ಎ.</w>": 1098,
  "ಎ</w>": 1099,
  "ಎಂ": 1100,
  "ಎಂ.": 1101,
  "ಎಂ.</w>": 1102,
  "ಎಂಟ": 1103,
  "ಎಂಟು</w>": 1104,
  "ಎಂತ": 1105,
  "ಎಂತಲೇ</w>": 1106,
  "ಎಂತಹ</w>": 1107,
  "ಎಂಥ": 1108,
  "ಎಂಥ</w>": 1109,
  "ಎಂದ": 1110,
  "ಎಂದ</w>": 1111,
  "ಎಂದರು,</w>": 1112,
  "ಎಂದರು.</w>": 1113,
  "ಎಂದರು</w>": 1114,
  "ಎಂದರೆ</w>": 1115,
  "ಎಂದರ್ಥ": 1116,
  "ಎಂದಾಗ": 1117,
  "ಎಂದಾಗ,</w>": 1118,
  "ಎಂದಾಗ</w>": 1119,
  "ಎಂದು,</w>": 1120,
  "ಎಂದು.</w>": 1121,
  "ಎಂದು</w>": 1122,
  "ಎಂದುಕೊಂಡ": 1123,
  "ಎಂದುಕೊಳ್ಳ": 1124,
  "ಎಂದೂ</w>": 1125,
  "ಎಂದೆ.</w>": 1126,
  "ಎಂದೇ</w>": 1127,
  "ಎಂಬ": 1128,
  "ಎಂಬ</w>": 1129,
  "ಎಂಬಂತೆ</w>": 1130,
  "ಎಂಬು": 1131,
  "ಎಂಬುದ": 1132,
  "ಎಂಬುದಕ್ಕೆ</w>": 1133,
  "ಎಂಬುದನ್ನು</w>": 1134,
  "ಎಂಬುದು</w>": 1135,
  "ಎಂಬುದೇ</w>": 1136,
  "ಎಚ್ಚ": 1137,
  "ಎಚ್ಚರ": 1138,
  "ಎಚ್ಚರಿಕೆ</w>": 1139,
  "ಎಚ್‌.</w>": 1140,
  "ಎಡ": 1141,
  "ಎಣ್ಣೆ</w>": 1142,
  "ಎತ್ತ": 1143,
  "ಎತ್ತ</w>": 1144,
  "ಎತ್ತಿ": 1145,
  "ಎತ್ತಿ</w>": 1146,
  "ಎದ": 1147,
  "ಎದು": 1148,
  "ಎದುರಿಗೆ</w>": 1149,
  "ಎದುರು</w>": 1150,
  "ಎದೆ": 1151,
  "ಎದೆ</w>": 1152,
  "ಎದೆಯ": 1153,
  "ಎದ್ದ": 1154,
  "ಎದ್ದು</w>": 1155,
  "ಎನ": 1156,
  "ಎನಗೆ</w>": 1157,
  "ಎನಿಸ": 1158,
  "ಎನಿಸಿ": 1159,
  "ಎನ್": 1160,
  "ಎನ್ನ": 1161,
  "ಎನ್ನ</w>": 1162,
  "ಎನ್ನನು</w>": 1163,
  "ಎನ್ನಬಹುದು.</w>": 1164,
  "ಎನ್ನಿರ": 1165,
  "ಎನ್ನಿರೊ</w>": 1166,
  "ಎನ್ನಿರೋ</w>": 1167,
  "ಎನ್ನಿಸುತ್ತದೆ.</w>": 1168,
  "ಎನ್ನು</w>": 1169,
  "ಎನ್ನುತ್ತಿದ್ದರು.</w>": 1170,
  "ಎನ್ನುವ": 1171,
  "ಎನ್ನುವ</w>": 1172,
  "ಎನ್ನುವುದು</w>": 1173,
  "ಎನ್‌": 1174,
  "ಎನ್‌.</w>": 1175,
  "ಎಬ್ಬ": 1176,
  "ಎಮ್ಮೆ</w>": 1177,
  "ಎರ": 1178,
  "ಎರಡ": 1179,
  "ಎರಡನೆಯ</w>": 1180,
  "ಎರಡನೇ</w>": 1181,
  "ಎರಡು": 1182,
  "ಎರಡು</w>": 1183,
  "ಎರಡೂ</w>": 1184,
  "ಎರ್ರಿ": 1185,
  "ಎರ್ರಿಸಾಮಿ</w>": 1186,
  "ಎಲೆ": 1187,
  "ಎಲೆ</w>": 1188,
  "ಎಲ್ಲ": 1189,
  "ಎಲ್ಲ</w>": 1190,
  "ಎಲ್ಲಕ್ಕಿಂತ</w>": 1191,
  "ಎಲ್ಲರ</w>": 1192,
  "ಎಲ್ಲರಿಗೂ</w>": 1193,
  "ಎಲ್ಲರೂ</w>": 1194,
  "ಎಲ್ಲವನ್ನೂ</w>": 1195,
  "ಎಲ್ಲವೂ</w>": 1196,
  "ಎಲ್ಲಾ</w>": 1197,
  "ಎಲ್ಲಿ": 1198,
  "ಎಲ್ಲಿ</w>": 1199,
  "ಎಲ್ಲಿಂದ</w>": 1200,
  "ಎಲ್ಲಿಗೆ</w>": 1201,
  "ಎಲ್ಲೆಲ್ಲ": 1202,
  "ಎಲ್‌": 1203,
  "ಎಳ": 1204,
  "ಎಳೆ": 1205,
  "ಎಳೆಯ": 1206,
  "ಎಷ್ಟ": 1207,
  "ಎಷ್ಟು</w>": 1208,
  "ಎಸೆ": 1209,
  "ಎಸ್ಟ": 1210,
  "ಎಸ್ಟು</w>": 1211,
  "ಎಸ್ಟೋ</w>": 1212,
  "ಎಸ್‌": 1213,
  "ಎಸ್‌,</w>": 1214,
  "ಎಸ್‌.": 1215,
  "ಎಸ್‌.</w>": 1216,
  "ಎ೦": 1217,
  "ಎ೦ಟು</w>": 1218,
  "ಎ೦ದು</w>": 1219,
  "ಎ೦ಬ</w>": 1220,
  "ಎ೦ಬು": 1221,
  "ಎ೦ಬುದನ್ನು</w>": 1222,
  "ಎ೦ಬುದು</w>": 1223,
  "ಏ": 1224,
  "ಏಕ": 1225,
  "ಏಕತಾಳ</w>": 1226,
  "ಏಕಾದ": 1227,
  "ಏಕೆ": 1228,
  "ಏಕೆ</w>": 1229,
  "ಏಕೆಂದರೆ</w>": 1230,
  "ಏಟು</w>": 1231,
  "ಏನ": 1232,
  "ಏನಾ": 1233,
  "ಏನಾದರೂ</w>": 1234,
  "ಏನಾದ್ರು</w>": 1235,
  "ಏನು</w>": 1236,
  "ಏನೂ</w>": 1237,
  "ಏನೆಂದು</w>": 1238,
  "ಏನೇ</w>": 1239,
  "ಏನೇನೋ</w>": 1240,
  "ಏನೋ</w>": 1241,
  "ಏರಿ": 1242,
  "ಏರಿ</w>": 1243,
  "ಏರ್": 1244,
  "ಏಳ": 1245,
  "ಏಳಯ್ಯ</w>": 1246,
  "ಏಳು</w>": 1247,
  "ಏಿ": 1248,
  "ಐ": 1249,
  "ಐತಿಹಾ": 1250,
  "ಐತಿಹಾಸಿಕ</w>": 1251,
  "ಐದು</w>": 1252,
  "ಒ": 1253,
  "ಒಂಟ": 1254,
  "ಒಂದ": 1255,
  "ಒಂದು": 1256,
  "ಒಂದು.</w>": 1257,
  "ಒಂದು</w>": 1258,
  "ಒಂದೆ": 1259,
  "ಒಂದೆರಡು</w>": 1260,
  "ಒಂದೇ</w>": 1261,
  "ಒಂದೊಂದ": 1262,
  "ಒಂದೊಂದು</w>": 1263,
  "ಒಂಬ": 1264,
  "ಒಂಬತ್ತು</w>": 1265,
  "ಒಂಭ": 1266,
  "ಒಗ": 1267,
  "ಒಗೆ": 1268,
  "ಒಗ್ಗ": 1269,
  "ಒಡ": 1270,
  "ಒಡನೆ</w>": 1271,
  "ಒಡವೆ</w>": 1272,
  "ಒಡೆ": 1273,
  "ಒಡೆದು</w>": 1274,
  "ಒಡೆಯ": 1275,
  "ಒಡೆಯ</w>": 1276,
  "ಒಣ": 1277,
  "ಒಣಗ": 1278,
  "ಒತ್ತ": 1279,
  "ಒತ್ತಾ": 1280,
  "ಒತ್ತಾಯ": 1281,
  "ಒತ್ತಿ</w>": 1282,
  "ಒತ್ತು</w>": 1283,
  "ಒದ": 1284,
  "ಒದಗ": 1285,
  "ಒದಗಿಸ": 1286,
  "ಒದ್": 1287,
  "ಒನ್": 1288,
  "ಒಪ್ಪ": 1289,
  "ಒಪ್ಪಿ</w>": 1290,
  "ಒಬ್ಬ": 1291,
  "ಒಬ್ಬ</w>": 1292,
  "ಒಬ್ಬರು</w>": 1293,
  "ಒಮ್ಮ": 1294,
  "ಒಮ್ಮೆ</w>": 1295,
  "ಒರ": 1296,
  "ಒರೆ": 1297,
  "ಒಲ": 1298,
  "ಒಲಿದು</w>": 1299,
  "ಒಳ": 1300,
  "ಒಳ</w>": 1301,
  "ಒಳಕ್ಕೆ</w>": 1302,
  "ಒಳಗಿನ</w>": 1303,
  "ಒಳಗೆ</w>": 1304,
  "ಒಳ್ಳ": 1305,
  "ಒಳ್ಳೆ</w>": 1306,
  "ಒಳ್ಳೆಯ": 1307,
  "ಒಳ್ಳೆಯ</w>": 1308,
  "ಒಳ್ಳೆಯದು</w>": 1309,
  "ಒ೦ದು</w>": 1310,
  "ಓ": 1311,
  "ಓ,</w>": 1312,
  "ಓ.</w>": 1313,
  "ಓ</w>": 1314,
  "ಓಂ": 1315,
  "ಓಂ</w>": 1316,
  "ಓಂಕಾರ": 1317,
  "ಓಂಕಿರುಗಿ</w>": 1318,
  "ಓಂತಿರುಗಿ</w>": 1319,
  "ಓಡ": 1320,
  "ಓಡಾ": 1321,
  "ಓಡಾಡ": 1322,
  "ಓಡಿ": 1323,
  "ಓಡಿ</w>": 1324,
  "ಓದ": 1325,
  "ಓದಲು</w>": 1326,
  "ಓದಿ,</w>": 1327,
  "ಓದಿ</w>": 1328,
  "ಓದಿದ": 1329,
  "ಓದಿದ</w>": 1330,
  "ಓದು": 1331,
  "ಓದು</w>": 1332,
  "ಓದುವ</w>": 1333,
  "ಓಿ": 1334,
  "ಓಿಂಕಿರುಗಿ</w>": 1335,
  "ಓಿಂತಿರುಗಿ</w>": 1336,
  "ಔ": 1337,
  "ಔಷ": 1338,
  "ಔಷಧಿ</w>": 1339,
  "ಕ": 1340,
  "ಕ,</w>": 1341,
  "ಕ-</w>": 1342,
  "ಕ.</w>": 1343,
  "ಕ</w>": 1344,
  "ಕಂ": 1345,
  "ಕಂಕ": 1346,
  "ಕಂಚಿನ</w>": 1347,
  "ಕಂಜ": 1348,
  "ಕಂಟ": 1349,
  "ಕಂಠ": 1350,
  "ಕಂಡ": 1351,
  "ಕಂಡ</w>": 1352,
  "ಕಂಡರೆ</w>": 1353,
  "ಕಂಡಾಗ</w>": 1354,
  "ಕಂಡು": 1355,
  "ಕಂಡು,</w>": 1356,
  "ಕಂಡು</w>": 1357,
  "ಕಂಡೆ</w>": 1358,
  "ಕಂಡ್ಯ</w>": 1359,
  "ಕಂತ": 1360,
  "ಕಂತುಪಿತ</w>": 1361,
  "ಕಂತೆ</w>": 1362,
  "ಕಂದ": 1363,
  "ಕಂದ</w>": 1364,
  "ಕಂಪ": 1365,
  "ಕಂಬ": 1366,
  "ಕಂಭ": 1367,
  "ಕಂಸನ</w>": 1368,
  "ಕಕೆ": 1369,
  "ಕಕ್ಕೆ</w>": 1370,
  "ಕಚ್ಚ": 1371,
  "ಕಟ": 1372,
  "ಕಟ</w>": 1373,
  "ಕಟ್": 1374,
  "ಕಟ್ಟ": 1375,
  "ಕಟ್ಟ</w>": 1376,
  "ಕಟ್ಟಾ": 1377,
  "ಕಟ್ಟಿ": 1378,
  "ಕಟ್ಟಿ</w>": 1379,
  "ಕಟ್ಟಿಕೊಂಡು</w>": 1380,
  "ಕಟ್ಟಿದ": 1381,
  "ಕಟ್ಟಿದ</w>": 1382,
  "ಕಟ್ಟು": 1383,
  "ಕಟ್ಟು</w>": 1384,
  "ಕಟ್ಟೆ</w>": 1385,
  "ಕಡ": 1386,
  "ಕಡಲ": 1387,
  "ಕಡಿ": 1388,
  "ಕಡಿದ": 1389,
  "ಕಡಿದು</w>": 1390,
  "ಕಡಿಮೆ</w>": 1391,
  "ಕಡೀ": 1392,
  "ಕಡು": 1393,
  "ಕಡು</w>": 1394,
  "ಕಡೆ": 1395,
  "ಕಡೆ</w>": 1396,
  "ಕಡೆಗೆ</w>": 1397,
  "ಕಡೆಯ": 1398,
  "ಕಡೆಯ</w>": 1399,
  "ಕಡೆಯಿಂದ</w>": 1400,
  "ಕಡ್ಡಿ</w>": 1401,
  "ಕಣ": 1402,
  "ಕಣ್": 1403,
  "ಕಣ್ಣ": 1404,
  "ಕಣ್ಣ</w>": 1405,
  "ಕಣ್ಣಾ": 1406,
  "ಕಣ್ಣಾರೆ</w>": 1407,
  "ಕಣ್ಣಿ": 1408,
  "ಕಣ್ಣಿ</w>": 1409,
  "ಕಣ್ಣಿಗೆ</w>": 1410,
  "ಕಣ್ಣೀ": 1411,
  "ಕಣ್ಣೀರು</w>": 1412,
  "ಕಣ್ಣು": 1413,
  "ಕಣ್ಣು,</w>": 1414,
  "ಕಣ್ಣು</w>": 1415,
  "ಕಣ್ಣುಳ್ಳವನು</w>": 1416,
  "ಕಣ್ಮ": 1417,
  "ಕತ": 1418,
  "ಕತೆ": 1419,
  "ಕತೆ</w>": 1420,
  "ಕತೆಯ": 1421,
  "ಕತೆಯ</w>": 1422,
  "ಕತೆಯನ್ನು</w>": 1423,
  "ಕತ್ತ": 1424,
  "ಕತ್ತರಿಸಿದ</w>": 1425,
  "ಕತ್ತು</w>": 1426,
  "ಕಥ": 1427,
  "ಕಥಾ": 1428,
  "ಕಥಾ</w>": 1429,
  "ಕಥೆ": 1430,
  "ಕಥೆ,</w>": 1431,
  "ಕಥೆ.</w>": 1432,
  "ಕಥೆ</w>": 1433,
  "ಕಥೆಗಳನ್ನು</w>": 1434,
  "ಕಥೆಗಳು</w>": 1435,
  "ಕದ": 1436,
  "ಕದ</w>": 1437,
  "ಕದಲ್ಲಿ</w>": 1438,
  "ಕದ್ದ": 1439,
  "ಕದ್ದ</w>": 1440,
  "ಕದ್ದು</w>": 1441,
  "ಕನ": 1442,
  "ಕನ</w>": 1443,
  "ಕನಕ": 1444,
  "ಕನಕ</w>": 1445,
  "ಕನಕದಾಸ": 1446,
  "ಕನಕದಾಸರ": 1447,
  "ಕನಕದಾಸರ</w>": 1448,
  "ಕನಕದಾಸರಿಗೆ</w>": 1449,
  "ಕನಕದಾಸರು.</w>": 1450,
  "ಕನಕದಾಸರು</w>": 1451,
  "ಕನಕನ</w>": 1452,
  "ಕನನ್ನು</w>": 1453,
  "ಕನಸಿ": 1454,
  "ಕನಸು": 1455,
  "ಕನಸು</w>": 1456,
  "ಕನಾಗಿ</w>": 1457,
  "ಕನಾದ</w>": 1458,
  "ಕನಿ": 1459,
  "ಕನೆ</w>": 1460,
  "ಕನ್": 1461,
  "ಕನ್ನ": 1462,
  "ಕನ್ನ</w>": 1463,
  "ಕನ್ನಡ": 1464,
  "ಕನ್ನಡ</w>": 1465,
  "ಕನ್ನಡಕ್ಕೆ</w>": 1466,
  "ಕನ್ನಡದ</w>": 1467,
  "ಕನ್ನಡದಲ್ಲಿ</w>": 1468,
  "ಕನ್ನಡಿಗ": 1469,
  "ಕನ್ನಡಿಗರ</w>": 1470,
  "ಕಪ": 1471,
  "ಕಪಟ": 1472,
  "ಕಪಿ": 1473,
  "ಕಪ್ಪ": 1474,
  "ಕಪ್ಪ</w>": 1475,
  "ಕಪ್ಪು</w>": 1476,
  "ಕಬ್ಬ": 1477,
  "ಕಬ್ಬಿ": 1478,
  "ಕಬ್ಬಿಣದ</w>": 1479,
  "ಕಮ": 1480,
  "ಕಮಲ": 1481,
  "ಕಮಲ</w>": 1482,
  "ಕಮಲದಂತೆ</w>": 1483,
  "ಕಮಲವುಳ್ಳವನು</w>": 1484,
  "ಕಮಲಾ": 1485,
  "ಕಮಲಾಕ್ಷ</w>": 1486,
  "ಕಮ್ಮ": 1487,
  "ಕಯ್ಯ</w>": 1488,
  "ಕರ": 1489,
  "ಕರ</w>": 1490,
  "ಕರಗ": 1491,
  "ಕರಗವ್ವ</w>": 1492,
  "ಕರಣ": 1493,
  "ಕರಣ</w>": 1494,
  "ಕರನ್ನು</w>": 1495,
  "ಕರಾ": 1496,
  "ಕರಾಗ": 1497,
  "ಕರಾಗಿ</w>": 1498,
  "ಕರಾಗಿದ್ದರು.</w>": 1499,
  "ಕರಾದ</w>": 1500,
  "ಕರಿ": 1501,
  "ಕರಿ</w>": 1502,
  "ಕರಿಗೆ</w>": 1503,
  "ಕರಿಯ</w>": 1504,
  "ಕರಿಸಿ</w>": 1505,
  "ಕರೀ": 1506,
  "ಕರು": 1507,
  "ಕರು</w>": 1508,
  "ಕರುಣ": 1509,
  "ಕರುಣಾ": 1510,
  "ಕರುಳ</w>": 1511,
  "ಕರೆ": 1512,
  "ಕರೆ</w>": 1513,
  "ಕರೆದ": 1514,
  "ಕರೆದು</w>": 1515,
  "ಕರೆದುಕೊಂಡು</w>": 1516,
  "ಕರೆಯ": 1517,
  "ಕರ್": 1518,
  "ಕರ್ಣ": 1519,
  "ಕರ್ಣ</w>": 1520,
  "ಕರ್ತ": 1521,
  "ಕರ್ನಾಟಕ": 1522,
  "ಕರ್ನಾಟಕ</w>": 1523,
  "ಕರ್ನಾಟಕದ</w>": 1524,
  "ಕರ್ನಾಟಕದಲ್ಲಿ</w>": 1525,
  "ಕರ್ಮ": 1526,
  "ಕರ್ಮ</w>": 1527,
  "ಕರ್ಮೇ": 1528,
  "ಕರ್‌": 1529,
  "ಕರ್‌</w>": 1530,
  "ಕಲ": 1531,
  "ಕಲಾ": 1532,
  "ಕಲಾವಿದ": 1533,
  "ಕಲಿ": 1534,
  "ಕಲಿ</w>": 1535,
  "ಕಲಿತು</w>": 1536,
  "ಕಲಿಯ": 1537,
  "ಕಲು": 1538,
  "ಕಲು</w>": 1539,
  "ಕಲೆ": 1540,
  "ಕಲೆ</w>": 1541,
  "ಕಲ್": 1542,
  "ಕಲ್ಕ್ಯ": 1543,
  "ಕಲ್ಕ್ಯವತಾರ</w>": 1544,
  "ಕಲ್ಪ": 1545,
  "ಕಲ್ಯಾ": 1546,
  "ಕಲ್ಯಾಣಿ</w>": 1547,
  "ಕಲ್ಲ": 1548,
  "ಕಲ್ಲು</w>": 1549,
  "ಕಲ್‌</w>": 1550,
  "ಕಳ": 1551,
  "ಕಳ</w>": 1552,
  "ಕಳವಳ": 1553,
  "ಕಳಿಸ": 1554,
  "ಕಳಿಸಿದರು.</w>": 1555,
  "ಕಳುಹ": 1556,
  "ಕಳೆ": 1557,
  "ಕಳೆ</w>": 1558,
  "ಕಳೆದ</w>": 1559,
  "ಕಳೆದು": 1560,
  "ಕಳೆದು</w>": 1561,
  "ಕಳೆದುಕೊಂಡು</w>": 1562,
  "ಕಳೆಯ": 1563,
  "ಕಳ್ಳ": 1564,
  "ಕಳ್ಳ</w>": 1565,
  "ಕವ": 1566,
  "ಕವನ": 1567,
  "ಕವಳ</w>": 1568,
  "ಕವಾಗಿ</w>": 1569,
  "ಕವಿ": 1570,
  "ಕವಿ</w>": 1571,
  "ಕವಿಗಳ</w>": 1572,
  "ಕಷ್ಟ": 1573,
  "ಕಷ್ಟ</w>": 1574,
  "ಕಸ</w>": 1575,
  "ಕಸ್ಟ": 1576,
  "ಕಾ": 1577,
  "ಕಾ</w>": 1578,
  "ಕಾಂ": 1579,
  "ಕಾಂಗ": 1580,
  "ಕಾಂಗ್ರೆ": 1581,
  "ಕಾಂಗ್ರೆಸ್‌</w>": 1582,
  "ಕಾಂಡ</w>": 1583,
  "ಕಾಂತ": 1584,
  "ಕಾಂತ</w>": 1585,
  "ಕಾಂಬ": 1586,
  "ಕಾಂಬೋ": 1587,
  "ಕಾಂಬೋದಿ</w>": 1588,
  "ಕಾಗ": 1589,
  "ಕಾಗದ": 1590,
  "ಕಾಗದ</w>": 1591,
  "ಕಾಗಿ": 1592,
  "ಕಾಗಿ</w>": 1593,
  "ಕಾಗಿನೆಲೆಯಾದಿಕೇಶ": 1594,
  "ಕಾಗಿನೆಲೆಯಾದಿಕೇಶವ": 1595,
  "ಕಾಗಿನೆಲೆಯಾದಿಕೇಶವ</w>": 1596,
  "ಕಾಗಿನೆಲೆಯಾದಿಕೇಶವನ</w>": 1597,
  "ಕಾಗಿನೆಲೆಯಾದಿಕೇಶವರಾಯ</w>": 1598,
  "ಕಾಟ": 1599,
  "ಕಾಟ</w>": 1600,
  "ಕಾಡ": 1601,
  "ಕಾಡಿ": 1602,
  "ಕಾಡು": 1603,
  "ಕಾಡು</w>": 1604,
  "ಕಾಡುವ</w>": 1605,
  "ಕಾಣ": 1606,
  "ಕಾಣದ</w>": 1607,
  "ಕಾಣಲಿಲ್ಲ.</w>": 1608,
  "ಕಾಣಲು</w>": 1609,
  "ಕಾಣುತ್ತದೆ.</w>": 1610,
  "ಕಾಣುತ್ತಿತ್ತು.</w>": 1611,
  "ಕಾಣುವ</w>": 1612,
  "ಕಾಣೆ</w>": 1613,
  "ಕಾಥಿ</w>": 1614,
  "ಕಾದ": 1615,
  "ಕಾದ</w>": 1616,
  "ಕಾದಂಬ": 1617,
  "ಕಾದಂಬರಿ": 1618,
  "ಕಾದಂಬರಿ</w>": 1619,
  "ಕಾದಂಬರಿಕಾರ": 1620,
  "ಕಾದಂಬರಿಗಳನ್ನು</w>": 1621,
  "ಕಾದಂಬರಿಗಳು</w>": 1622,
  "ಕಾದಂಬರಿಯ</w>": 1623,
  "ಕಾದಂಬರಿಯನ್ನು</w>": 1624,
  "ಕಾದಿ": 1625,
  "ಕಾದಿ</w>": 1626,
  "ಕಾದು</w>": 1627,
  "ಕಾನ": 1628,
  "ಕಾನೂ": 1629,
  "ಕಾಪಾ": 1630,
  "ಕಾಪಾಡು</w>": 1631,
  "ಕಾಫ": 1632,
  "ಕಾಫಿ,</w>": 1633,
  "ಕಾಫಿ</w>": 1634,
  "ಕಾಫಿಯನ್ನು</w>": 1635,
  "ಕಾಮ": 1636,
  "ಕಾಮ</w>": 1637,
  "ಕಾಮನ</w>": 1638,
  "ಕಾಯ": 1639,
  "ಕಾಯ</w>": 1640,
  "ಕಾಯಿ": 1641,
  "ಕಾಯಿ,</w>": 1642,
  "ಕಾಯಿ</w>": 1643,
  "ಕಾಯಿತು.</w>": 1644,
  "ಕಾಯಿಲೆ</w>": 1645,
  "ಕಾಯುವ</w>": 1646,
  "ಕಾಯೊ</w>": 1647,
  "ಕಾಯ್": 1648,
  "ಕಾಯ್ದ</w>": 1649,
  "ಕಾಯ್ದೆಯ": 1650,
  "ಕಾರ": 1651,
  "ಕಾರ,</w>": 1652,
  "ಕಾರ</w>": 1653,
  "ಕಾರಕ್ಕೆ</w>": 1654,
  "ಕಾರಣ": 1655,
  "ಕಾರಣ</w>": 1656,
  "ಕಾರಣಕ್ಕಾಗ": 1657,
  "ಕಾರಣಕ್ಕಾಗಿ</w>": 1658,
  "ಕಾರಣವಾಯಿತು.</w>": 1659,
  "ಕಾರದ</w>": 1660,
  "ಕಾರದಿಂದ</w>": 1661,
  "ಕಾರವ": 1662,
  "ಕಾರವಾಗಿ</w>": 1663,
  "ಕಾರಿ": 1664,
  "ಕಾರಿ</w>": 1665,
  "ಕಾರಿನ</w>": 1666,
  "ಕಾರಿನಲ್ಲಿ</w>": 1667,
  "ಕಾರು": 1668,
  "ಕಾರು</w>": 1669,
  "ಕಾರ್": 1670,
  "ಕಾರ್ಯ": 1671,
  "ಕಾರ್ಯ</w>": 1672,
  "ಕಾರ್ಯಕ್ರ": 1673,
  "ಕಾರ್ಯಕ್ರಮ": 1674,
  "ಕಾರ್ಯಕ್ರಮ</w>": 1675,
  "ಕಾರ್ಯದರ್ಶ": 1676,
  "ಕಾಲ": 1677,
  "ಕಾಲ</w>": 1678,
  "ಕಾಲಕ್ಕೆ</w>": 1679,
  "ಕಾಲದ</w>": 1680,
  "ಕಾಲದಲ್ಲಿ,</w>": 1681,
  "ಕಾಲದಲ್ಲಿ</w>": 1682,
  "ಕಾಲದಲ್ಲೇ</w>": 1683,
  "ಕಾಲನ</w>": 1684,
  "ಕಾಲಿ": 1685,
  "ಕಾಲಿಗೆ</w>": 1686,
  "ಕಾಲಿನ</w>": 1687,
  "ಕಾಲಿಲ್ಲ": 1688,
  "ಕಾಲು": 1689,
  "ಕಾಲು</w>": 1690,
  "ಕಾಲೇ": 1691,
  "ಕಾಲೇಜ": 1692,
  "ಕಾಲೇಜಿಗೆ</w>": 1693,
  "ಕಾಲೇಜಿನ</w>": 1694,
  "ಕಾಲೇಜಿನಲ್ಲಿ</w>": 1695,
  "ಕಾಲೇಜು</w>": 1696,
  "ಕಾಳ": 1697,
  "ಕಾಳಿ": 1698,
  "ಕಾಳಿಂಗ": 1699,
  "ಕಾಳಿದಾ": 1700,
  "ಕಾವ": 1701,
  "ಕಾವು</w>": 1702,
  "ಕಾವೇರಿ</w>": 1703,
  "ಕಾವ್ಯ": 1704,
  "ಕಾವ್ಯ</w>": 1705,
  "ಕಾಶ": 1706,
  "ಕಾಶ</w>": 1707,
  "ಕಾಸ": 1708,
  "ಕಿ": 1709,
  "ಕಿ,</w>": 1710,
  "ಕಿ</w>": 1711,
  "ಕಿಂಚಿ": 1712,
  "ಕಿಂಡ": 1713,
  "ಕಿಂತ</w>": 1714,
  "ಕಿಗೆ</w>": 1715,
  "ಕಿತ್": 1716,
  "ಕಿತ್ತ": 1717,
  "ಕಿತ್ತು</w>": 1718,
  "ಕಿದ": 1719,
  "ಕಿದ</w>": 1720,
  "ಕಿನ</w>": 1721,
  "ಕಿನಲ್ಲಿ</w>": 1722,
  "ಕಿಯ": 1723,
  "ಕಿರ": 1724,
  "ಕಿರಿ": 1725,
  "ಕಿರಿದ": 1726,
  "ಕಿರಿಯ</w>": 1727,
  "ಕಿರು": 1728,
  "ಕಿವಿ": 1729,
  "ಕಿವಿ,</w>": 1730,
  "ಕಿವಿ</w>": 1731,
  "ಕಿವಿಗೆ</w>": 1732,
  "ಕಿವಿಯ": 1733,
  "ಕಿವು": 1734,
  "ಕಿಸ": 1735,
  "ಕೀ": 1736,
  "ಕೀ</w>": 1737,
  "ಕೀಯ": 1738,
  "ಕೀಯ</w>": 1739,
  "ಕೀರ್": 1740,
  "ಕೀರ್ತ": 1741,
  "ಕೀರ್ತನ": 1742,
  "ಕೀರ್ತನೆ": 1743,
  "ಕೀರ್ತನೆ.</w>": 1744,
  "ಕೀರ್ತನೆ</w>": 1745,
  "ಕೀರ್ತನೆಗಳ</w>": 1746,
  "ಕೀರ್ತನೆಯ": 1747,
  "ಕೀರ್ತನೆಯ</w>": 1748,
  "ಕೀರ್ತನೆಯನ್ನು</w>": 1749,
  "ಕೀರ್ತನೆಯಲ್ಲಿ.</w>": 1750,
  "ಕೀರ್ತನೆಯಲ್ಲಿ</w>": 1751,
  "ಕೀರ್ತನೆಯಿದು.</w>": 1752,
  "ಕೀರ್ತಿ</w>": 1753,
  "ಕೀಲ": 1754,
  "ಕೀಳ": 1755,
  "ಕೀಳು</w>": 1756,
  "ಕು": 1757,
  "ಕು'</w>": 1758,
  "ಕು,</w>": 1759,
  "ಕು.</w>": 1760,
  "ಕು</w>": 1761,
  "ಕುಂ": 1762,
  "ಕುಂಕು": 1763,
  "ಕುಂಜ": 1764,
  "ಕುಂಡ": 1765,
  "ಕುಂತ": 1766,
  "ಕುಂದ": 1767,
  "ಕುಂಬ": 1768,
  "ಕುಂಭ": 1769,
  "ಕುಂಭ</w>": 1770,
  "ಕುಕ್ಕ": 1771,
  "ಕುಗಿ</w>": 1772,
  "ಕುಚ": 1773,
  "ಕುಟ": 1774,
  "ಕುಟು": 1775,
  "ಕುಟುಂಬ": 1776,
  "ಕುಟ್ಟ": 1777,
  "ಕುಡಿದ": 1778,
  "ಕುಡಿದು</w>": 1779,
  "ಕುಡಿಯ": 1780,
  "ಕುಣ": 1781,
  "ಕುಣಿ": 1782,
  "ಕುಣಿಯ": 1783,
  "ಕುತಿ</w>": 1784,
  "ಕುತೂ": 1785,
  "ಕುತೂಹಲ": 1786,
  "ಕುದು": 1787,
  "ಕುದುರೆ</w>": 1788,
  "ಕುಪ್ಪ": 1789,
  "ಕುಮಾ": 1790,
  "ಕುಮಾರ": 1791,
  "ಕುಮಾರ</w>": 1792,
  "ಕುಮಾರ್‌</w>": 1793,
  "ಕುರಿ": 1794,
  "ಕುರಿ</w>": 1795,
  "ಕುರಿತ": 1796,
  "ಕುರಿತ</w>": 1797,
  "ಕುರಿತು</w>": 1798,
  "ಕುರು": 1799,
  "ಕುರ್ಚ": 1800,
  "ಕುಲ": 1801,
  "ಕುಲ</w>": 1802,
  "ಕುಲಾ": 1803,
  "ಕುಳಿ": 1804,
  "ಕುಳಿತ": 1805,
  "ಕುಳಿತ</w>": 1806,
  "ಕುಳಿತಿ": 1807,
  "ಕುಳಿತಿದ್ದ</w>": 1808,
  "ಕುಳಿತು</w>": 1809,
  "ಕುಳಿತುಕೊಳ್ಳ": 1810,
  "ಕುಳಿತೆ.</w>": 1811,
  "ಕುವೆ": 1812,
  "ಕುವೆಂಪು</w>": 1813,
  "ಕುಸು": 1814,
  "ಕುಸುಮ": 1815,
  "ಕು೦": 1816,
  "ಕೂ": 1817,
  "ಕೂ</w>": 1818,
  "ಕೂಗ": 1819,
  "ಕೂಗಿ</w>": 1820,
  "ಕೂಟ</w>": 1821,
  "ಕೂಡ": 1822,
  "ಕೂಡ</w>": 1823,
  "ಕೂಡಿ</w>": 1824,
  "ಕೂಡಿದ": 1825,
  "ಕೂಡಿದ</w>": 1826,
  "ಕೂಡೆ</w>": 1827,
  "ಕೂತ": 1828,
  "ಕೂತ.</w>": 1829,
  "ಕೂತ</w>": 1830,
  "ಕೂತಿದ್ದ</w>": 1831,
  "ಕೂತು</w>": 1832,
  "ಕೂದ": 1833,
  "ಕೂರ್ಮಾ": 1834,
  "ಕೂರ್ಮಾವತಾರ</w>": 1835,
  "ಕೂಲ": 1836,
  "ಕೂಸು</w>": 1837,
  "ಕೃ": 1838,
  "ಕೃ</w>": 1839,
  "ಕೃತ": 1840,
  "ಕೃತ</w>": 1841,
  "ಕೃತಜ್ಞ": 1842,
  "ಕೃತಿ": 1843,
  "ಕೃತಿ</w>": 1844,
  "ಕೃತಿಗಳನ್ನು</w>": 1845,
  "ಕೃತಿಯ</w>": 1846,
  "ಕೃತಿಯನ್ನು</w>": 1847,
  "ಕೃತ್ಯ": 1848,
  "ಕೃಪ": 1849,
  "ಕೃಷ್ಣ": 1850,
  "ಕೃಷ್ಣ)</w>": 1851,
  "ಕೃಷ್ಣ</w>": 1852,
  "ಕೃಷ್ಣದೇವ": 1853,
  "ಕೃಷ್ಣನ</w>": 1854,
  "ಕೃಷ್ಣನನ್ನು</w>": 1855,
  "ಕೃಷ್ಣನಿಗೆ</w>": 1856,
  "ಕೃಷ್ಣರಾಯರು</w>": 1857,
  "ಕೃಷ್ಣಲೀಲೆ</w>": 1858,
  "ಕೃಷ್ಣಶರ್ಮ": 1859,
  "ಕೃಷ್ಣಾ": 1860,
  "ಕೃಷ್ಣಾವತಾರ</w>": 1861,
  "ಕೆ": 1862,
  "ಕೆ'</w>": 1863,
  "ಕೆ,</w>": 1864,
  "ಕೆ.": 1865,
  "ಕೆ.</w>": 1866,
  "ಕೆ</w>": 1867,
  "ಕೆ?</w>": 1868,
  "ಕೆಂ": 1869,
  "ಕೆಂದು</w>": 1870,
  "ಕೆಂಪ": 1871,
  "ಕೆಂಪು</w>": 1872,
  "ಕೆಗಳನ್ನು</w>": 1873,
  "ಕೆಗೂ</w>": 1874,
  "ಕೆಗೆ</w>": 1875,
  "ಕೆಟ್ಟ": 1876,
  "ಕೆಟ್ಟ</w>": 1877,
  "ಕೆಟ್ಟು</w>": 1878,
  "ಕೆಡ": 1879,
  "ಕೆಡಿಸ": 1880,
  "ಕೆಣ": 1881,
  "ಕೆಣಕ": 1882,
  "ಕೆದ": 1883,
  "ಕೆಮ್ಮ": 1884,
  "ಕೆಯ": 1885,
  "ಕೆಯ</w>": 1886,
  "ಕೆಯನ್ನು</w>": 1887,
  "ಕೆಯಲ್ಲಿ</w>": 1888,
  "ಕೆಯಾಗಿ</w>": 1889,
  "ಕೆಯಿಂದ</w>": 1890,
  "ಕೆರ": 1891,
  "ಕೆರೆ": 1892,
  "ಕೆರೆ</w>": 1893,
  "ಕೆರೆಯ": 1894,
  "ಕೆರೆಯ</w>": 1895,
  "ಕೆಲ": 1896,
  "ಕೆಲ</w>": 1897,
  "ಕೆಲವರು</w>": 1898,
  "ಕೆಲವು</w>": 1899,
  "ಕೆಲಸ": 1900,
  "ಕೆಲಸ,</w>": 1901,
  "ಕೆಲಸ</w>": 1902,
  "ಕೆಲಸಕ್ಕೆ</w>": 1903,
  "ಕೆಲಸದ</w>": 1904,
  "ಕೆಲಸವನ್ನು</w>": 1905,
  "ಕೆಲ್": 1906,
  "ಕೆಲ್ಸ</w>": 1907,
  "ಕೆಳ": 1908,
  "ಕೆಳಗಿ": 1909,
  "ಕೆಳಗಿನ</w>": 1910,
  "ಕೆಳಗೆ</w>": 1911,
  "ಕೇ": 1912,
  "ಕೇ,</w>": 1913,
  "ಕೇ</w>": 1914,
  "ಕೇಂದ್ರ": 1915,
  "ಕೇಟ್‌</w>": 1916,
  "ಕೇದಾರ": 1917,
  "ಕೇದಾರಗೌಳ</w>": 1918,
  "ಕೇನಲ</w>": 1919,
  "ಕೇರಳ": 1920,
  "ಕೇರಳಾ": 1921,
  "ಕೇರಿ</w>": 1922,
  "ಕೇರಿಯ": 1923,
  "ಕೇರಿಯ</w>": 1924,
  "ಕೇಳ": 1925,
  "ಕೇಳದೆ</w>": 1926,
  "ಕೇಳಲು</w>": 1927,
  "ಕೇಳಿ": 1928,
  "ಕೇಳಿ,</w>": 1929,
  "ಕೇಳಿ</w>": 1930,
  "ಕೇಳಿದ": 1931,
  "ಕೇಳಿದ</w>": 1932,
  "ಕೇಳಿದರು.</w>": 1933,
  "ಕೇಳಿದಾಗ</w>": 1934,
  "ಕೇಳಿದೆ,</w>": 1935,
  "ಕೇಳಿದೆ.</w>": 1936,
  "ಕೇಳಿದೆ</w>": 1937,
  "ಕೇಳಿದ್ದ": 1938,
  "ಕೇಳು</w>": 1939,
  "ಕೇಳುವ": 1940,
  "ಕೇಳುವ</w>": 1941,
  "ಕೇಳ್": 1942,
  "ಕೇವಲ</w>": 1943,
  "ಕೇಶ": 1944,
  "ಕೇಶ</w>": 1945,
  "ಕೇಶವ</w>": 1946,
  "ಕೇಶವನ</w>": 1947,
  "ಕೈ": 1948,
  "ಕೈ</w>": 1949,
  "ಕೈಕಾಲು</w>": 1950,
  "ಕೈಗೆ</w>": 1951,
  "ಕೈಯ": 1952,
  "ಕೈಯ</w>": 1953,
  "ಕೈಯಲ್ಲಿ</w>": 1954,
  "ಕೈಯಿಂದ</w>": 1955,
  "ಕೈಲಾ": 1956,
  "ಕೈಲಿ</w>": 1957,
  "ಕೈಲು</w>": 1958,
  "ಕೊ": 1959,
  "ಕೊ</w>": 1960,
  "ಕೊಂಚ</w>": 1961,
  "ಕೊಂಡ": 1962,
  "ಕೊಂಡ.</w>": 1963,
  "ಕೊಂಡ</w>": 1964,
  "ಕೊಂಡರು.</w>": 1965,
  "ಕೊಂಡಾ": 1966,
  "ಕೊಂಡಿದ್ದ</w>": 1967,
  "ಕೊಂಡಿದ್ದರು.</w>": 1968,
  "ಕೊಂಡು,</w>": 1969,
  "ಕೊಂಡು</w>": 1970,
  "ಕೊಂಡೆ</w>": 1971,
  "ಕೊಂದ": 1972,
  "ಕೊಂದ</w>": 1973,
  "ಕೊಂದಾ": 1974,
  "ಕೊಂದಿಗೆ</w>": 1975,
  "ಕೊಂದು</w>": 1976,
  "ಕೊಂದೆ</w>": 1977,
  "ಕೊಂಬ": 1978,
  "ಕೊಂಬೆ</w>": 1979,
  "ಕೊಕೊ": 1980,
  "ಕೊಕೊಕೋ</w>": 1981,
  "ಕೊಟ</w>": 1982,
  "ಕೊಟ್ಟ": 1983,
  "ಕೊಟ್ಟ</w>": 1984,
  "ಕೊಟ್ಟರು.</w>": 1985,
  "ಕೊಟ್ಟಿ</w>": 1986,
  "ಕೊಟ್ಟಿದ್ದರು.</w>": 1987,
  "ಕೊಟ್ಟು,</w>": 1988,
  "ಕೊಟ್ಟು</w>": 1989,
  "ಕೊಠ": 1990,
  "ಕೊಡ": 1991,
  "ಕೊಡ</w>": 1992,
  "ಕೊಡನೆ</w>": 1993,
  "ಕೊಡಲಿ</w>": 1994,
  "ಕೊಡಲು</w>": 1995,
  "ಕೊಡಿ'</w>": 1996,
  "ಕೊಡು": 1997,
  "ಕೊಡು</w>": 1998,
  "ಕೊಡುಗ": 1999,
  "ಕೊಡುತ್ತಿದ್ದ</w>": 2000,
  "ಕೊಡುತ್ತಿದ್ದರು.</w>": 2001,
  "ಕೊಡುವ</w>": 2002,
  "ಕೊಡ್": 2003,
  "ಕೊಡ್ತೀ": 2004,
  "ಕೊನೆ": 2005,
  "ಕೊನೆ</w>": 2006,
  "ಕೊನೆಗೆ</w>": 2007,
  "ಕೊನೆಯ": 2008,
  "ಕೊನೆಯ</w>": 2009,
  "ಕೊಪ್ಪ": 2010,
  "ಕೊರ": 2011,
  "ಕೊರಗ": 2012,
  "ಕೊರಳ": 2013,
  "ಕೊರಳ</w>": 2014,
  "ಕೊಲ್ಲ": 2015,
  "ಕೊಳ": 2016,
  "ಕೊಳ್ಳ": 2017,
  "ಕೊಳ್ಳಲು</w>": 2018,
  "ಕೊಳ್ಳಿ</w>": 2019,
  "ಕೊಳ್ಳು</w>": 2020,
  "ಕೊಳ್ಳುವ</w>": 2021,
  "ಕೊ೦": 2022,
  "ಕೊ೦ಡ": 2023,
  "ಕೊ೦ಡು</w>": 2024,
  "ಕೊ೦ದ": 2025,
  "ಕೋ": 2026,
  "ಕೋ'</w>": 2027,
  "ಕೋ,</w>": 2028,
  "ಕೋ</w>": 2029,
  "ಕೋಟ": 2030,
  "ಕೋಟಿ</w>": 2031,
  "ಕೋಡ": 2032,
  "ಕೋಣ": 2033,
  "ಕೋಣೆಗೆ</w>": 2034,
  "ಕೋಣೆಯ</w>": 2035,
  "ಕೋಣೆಯಲ್ಲಿ</w>": 2036,
  "ಕೋಪ": 2037,
  "ಕೋರ</w>": 2038,
  "ಕೋರ್": 2039,
  "ಕೌ": 2040,
  "ಕೌರ": 2041,
  "ಕ್": 2042,
  "ಕ್ಕ": 2043,
  "ಕ್ಕ</w>": 2044,
  "ಕ್ಕನೆ</w>": 2045,
  "ಕ್ಕಾ": 2046,
  "ಕ್ಕಾಗ": 2047,
  "ಕ್ಕಾಗಿ</w>": 2048,
  "ಕ್ಕಿ": 2049,
  "ಕ್ಕಿ</w>": 2050,
  "ಕ್ಕಿಂತ</w>": 2051,
  "ಕ್ಕಿಲ್ಲ</w>": 2052,
  "ಕ್ಕು": 2053,
  "ಕ್ಕು</w>": 2054,
  "ಕ್ಕೂ</w>": 2055,
  "ಕ್ಕೆ": 2056,
  "ಕ್ಕೆ,</w>": 2057,
  "ಕ್ಕೆ</w>": 2058,
  "ಕ್ಕೆಲ್ಲ</w>": 2059,
  "ಕ್ಕೇ": 2060,
  "ಕ್ಕೇ</w>": 2061,
  "ಕ್ಕೊ": 2062,
  "ಕ್ಕೊಂದು</w>": 2063,
  "ಕ್ಕೋ": 2064,
  "ಕ್ಕೋ,</w>": 2065,
  "ಕ್ಟ": 2066,
  "ಕ್ಟ</w>": 2067,
  "ಕ್ತ": 2068,
  "ಕ್ತ</w>": 2069,
  "ಕ್ತಿ": 2070,
  "ಕ್ತಿ</w>": 2071,
  "ಕ್ತಿಯ": 2072,
  "ಕ್ತೆ</w>": 2073,
  "ಕ್ಯ": 2074,
  "ಕ್ಯ</w>": 2075,
  "ಕ್ಯಾ": 2076,
  "ಕ್ರ": 2077,
  "ಕ್ರಮ": 2078,
  "ಕ್ರಮ</w>": 2079,
  "ಕ್ರಾ": 2080,
  "ಕ್ರಾಂತ": 2081,
  "ಕ್ರಾಂತಿ": 2082,
  "ಕ್ರಾಂತಿ</w>": 2083,
  "ಕ್ರಾಂತಿಯ</w>": 2084,
  "ಕ್ರಿ": 2085,
  "ಕ್ರಿಯ": 2086,
  "ಕ್ರಿಯೆ</w>": 2087,
  "ಕ್ರೀ": 2088,
  "ಕ್ರೂ": 2089,
  "ಕ್ರೂರ</w>": 2090,
  "ಕ್ರೋ": 2091,
  "ಕ್ರೋಧ": 2092,
  "ಕ್ಲಿ": 2093,
  "ಕ್ಳ": 2094,
  "ಕ್ಷ": 2095,
  "ಕ್ಷ</w>": 2096,
  "ಕ್ಷಣ": 2097,
  "ಕ್ಷಣ</w>": 2098,
  "ಕ್ಷತ್ರಿಯ": 2099,
  "ಕ್ಷಮ": 2100,
  "ಕ್ಷಿ": 2101,
  "ಕ್ಷಿ</w>": 2102,
  "ಕ್ಷೀ": 2103,
  "ಕ್ಷು": 2104,
  "ಕ್ಷೇ": 2105,
  "ಕ್ಷೇತ್ರ": 2106,
  "ಕ್ಷೇತ್ರ</w>": 2107,
  "ಕ್ಷೇಪ": 2108,
  "ಕ್ಸ</w>": 2109,
  "ಕ್ಸಿ": 2110,
  "ಕ್ಸಿ</w>": 2111,
  "ಕ್ಸೆ</w>": 2112,
  "ಕ್ಸ್‌": 2113,
  "ಕ್ಸ್‌</w>": 2114,
  "ಕ್‌": 2115,
  "ಕ್‌</w>": 2116,
  "ಕ೦": 2117,
  "ಕ೦ಡ": 2118,
  "ಕ೦ಡು</w>": 2119,
  "ಖ": 2120,
  "ಖ</w>": 2121,
  "ಖಂಡ": 2122,
  "ಖಂಡಿತ</w>": 2123,
  "ಖಚಿತ": 2124,
  "ಖಚಿತ</w>": 2125,
  "ಖರ್": 2126,
  "ಖರ್ಚ": 2127,
  "ಖರ್ಚು</w>": 2128,
  "ಖಳ</w>": 2129,
  "ಖಾ": 2130,
  "ಖಾಯಿ": 2131,
  "ಖಾಲಿ</w>": 2132,
  "ಖಿ": 2133,
  "ಖು": 2134,
  "ಖು</w>": 2135,
  "ಖ್ಯ": 2136,
  "ಖ್ಯಾ": 2137,
  "ಖ್ಯಾತ</w>": 2138,
  "ಗ": 2139,
  "ಗ,</w>": 2140,
  "ಗ</w>": 2141,
  "ಗಂಗ": 2142,
  "ಗಂಗಾ": 2143,
  "ಗಂಗೆ</w>": 2144,
  "ಗಂಜ": 2145,
  "ಗಂಟ": 2146,
  "ಗಂಟಿ": 2147,
  "ಗಂಟಿ</w>": 2148,
  "ಗಂಟು</w>": 2149,
  "ಗಂಡ": 2150,
  "ಗಂಡ</w>": 2151,
  "ಗಂಡನ</w>": 2152,
  "ಗಂಡು</w>": 2153,
  "ಗಂಧ": 2154,
  "ಗಂಧ</w>": 2155,
  "ಗಂಭೀ": 2156,
  "ಗಜ": 2157,
  "ಗಜ</w>": 2158,
  "ಗಟ್ಟ": 2159,
  "ಗಡ": 2160,
  "ಗಡಿ": 2161,
  "ಗಡೆ</w>": 2162,
  "ಗಣ": 2163,
  "ಗಣ್ಣ": 2164,
  "ಗಣ್ಯ": 2165,
  "ಗತಿ": 2166,
  "ಗತಿ</w>": 2167,
  "ಗತಿಯ": 2168,
  "ಗತಿಯ</w>": 2169,
  "ಗದ": 2170,
  "ಗದ</w>": 2171,
  "ಗದ್ದ": 2172,
  "ಗದ್ದಲ</w>": 2173,
  "ಗನ</w>": 2174,
  "ಗನ್ನ": 2175,
  "ಗಮ": 2176,
  "ಗಮನ": 2177,
  "ಗಮನ</w>": 2178,
  "ಗಮನಾ": 2179,
  "ಗಮನಾರ್": 2180,
  "ಗಮನಿಸ": 2181,
  "ಗರ": 2182,
  "ಗರ</w>": 2183,
  "ಗರಿ</w>": 2184,
  "ಗರು": 2185,
  "ಗರು</w>": 2186,
  "ಗರುಡ": 2187,
  "ಗರುಡ</w>": 2188,
  "ಗರುಡನ</w>": 2189,
  "ಗರ್": 2190,
  "ಗರ್ಭ": 2191,
  "ಗಲ": 2192,
  "ಗಲಾ": 2193,
  "ಗಳ": 2194,
  "ಗಳ,</w>": 2195,
  "ಗಳ</w>": 2196,
  "ಗಳಂತೆ</w>": 2197,
  "ಗಳನು</w>": 2198,
  "ಗಳನ್ನ": 2199,
  "ಗಳನ್ನು,</w>": 2200,
  "ಗಳನ್ನು</w>": 2201,
  "ಗಳನ್ನೂ</w>": 2202,
  "ಗಳನ್ನೆ</w>": 2203,
  "ಗಳನ್ನೆಲ್ಲ</w>": 2204,
  "ಗಳಲ್ಲ": 2205,
  "ಗಳಲ್ಲಿ,</w>": 2206,
  "ಗಳಲ್ಲಿ</w>": 2207,
  "ಗಳಲ್ಲೂ</w>": 2208,
  "ಗಳಾ": 2209,
  "ಗಳಾಗ": 2210,
  "ಗಳಾಗಿ</w>": 2211,
  "ಗಳಾಗಿದ್ದ</w>": 2212,
  "ಗಳಾದ": 2213,
  "ಗಳಾದ</w>": 2214,
  "ಗಳಿ": 2215,
  "ಗಳಿಂದ": 2216,
  "ಗಳಿಂದ</w>": 2217,
  "ಗಳಿಗಾಗಿ</w>": 2218,
  "ಗಳಿಗೂ</w>": 2219,
  "ಗಳಿಗೆ": 2220,
  "ಗಳಿಗೆ</w>": 2221,
  "ಗಳಿಗೆಯ": 2222,
  "ಗಳಿಗೆಲ್ಲ</w>": 2223,
  "ಗಳಿದ್ದ": 2224,
  "ಗಳಿದ್ದಲ್ಲಿ</w>": 2225,
  "ಗಳಿಲ್ಲ</w>": 2226,
  "ಗಳಿಸ": 2227,
  "ಗಳಿ೦ದ</w>": 2228,
  "ಗಳು": 2229,
  "ಗಳು\",</w>": 2230,
  "ಗಳು)</w>": 2231,
  "ಗಳು,</w>": 2232,
  "ಗಳು.</w>": 2233,
  "ಗಳು</w>": 2234,
  "ಗಳುಂಟು</w>": 2235,
  "ಗಳೂ</w>": 2236,
  "ಗಳೆ": 2237,
  "ಗಳೆ</w>": 2238,
  "ಗಳೆಂಬ</w>": 2239,
  "ಗಳೆಯ": 2240,
  "ಗಳೆಲ್ಲ": 2241,
  "ಗಳೆಲ್ಲ</w>": 2242,
  "ಗಳೇ</w>": 2243,
  "ಗಳೊಂದಿಗೆ</w>": 2244,
  "ಗಳೊಡನೆ</w>": 2245,
  "ಗಳ್": 2246,
  "ಗವ</w>": 2247,
  "ಗಾ": 2248,
  "ಗಾ</w>": 2249,
  "ಗಾಂಧ": 2250,
  "ಗಾಂಧೀ": 2251,
  "ಗಾಗ": 2252,
  "ಗಾಗಿ</w>": 2253,
  "ಗಾಡ": 2254,
  "ಗಾಣ": 2255,
  "ಗಾತ್ರ": 2256,
  "ಗಾತ್ರ</w>": 2257,
  "ಗಾದ": 2258,
  "ಗಾದ</w>": 2259,
  "ಗಾದೆ</w>": 2260,
  "ಗಾನ</w>": 2261,
  "ಗಾಯ": 2262,
  "ಗಾಯಿತು.</w>": 2263,
  "ಗಾರ": 2264,
  "ಗಾರ</w>": 2265,
  "ಗಾಲ": 2266,
  "ಗಾಲ</w>": 2267,
  "ಗಾಳಿ</w>": 2268,
  "ಗಿ": 2269,
  "ಗಿ</w>": 2270,
  "ಗಿಂತ</w>": 2271,
  "ಗಿಡ": 2272,
  "ಗಿಡ,</w>": 2273,
  "ಗಿಡ</w>": 2274,
  "ಗಿಡದ</w>": 2275,
  "ಗಿತ್ತು.</w>": 2276,
  "ಗಿದ": 2277,
  "ಗಿದ.</w>": 2278,
  "ಗಿದ</w>": 2279,
  "ಗಿದು</w>": 2280,
  "ಗಿದ್ದ": 2281,
  "ಗಿದ್ದ</w>": 2282,
  "ಗಿನ</w>": 2283,
  "ಗಿನಿಂದ</w>": 2284,
  "ಗಿಯ": 2285,
  "ಗಿರ": 2286,
  "ಗಿರಲಿಲ್ಲ.</w>": 2287,
  "ಗಿರಿ": 2288,
  "ಗಿರಿ</w>": 2289,
  "ಗಿರಿಯ": 2290,
  "ಗಿರಿಯ</w>": 2291,
  "ಗಿರುವ</w>": 2292,
  "ಗೀ": 2293,
  "ಗೀಗ</w>": 2294,
  "ಗೀತೆ": 2295,
  "ಗು": 2296,
  "ಗು</w>": 2297,
  "ಗುಂ": 2298,
  "ಗುಂಡ": 2299,
  "ಗುಂಡಿಗೆ</w>": 2300,
  "ಗುಂದ": 2301,
  "ಗುಂಪ": 2302,
  "ಗುಂಪು</w>": 2303,
  "ಗುಟ್ಟ": 2304,
  "ಗುಟ್ಟು</w>": 2305,
  "ಗುಡಿ</w>": 2306,
  "ಗುಡಿಯ": 2307,
  "ಗುಡಿಸ": 2308,
  "ಗುಡು": 2309,
  "ಗುಡ್ಡ": 2310,
  "ಗುಣ": 2311,
  "ಗುಣ</w>": 2312,
  "ಗುರಿ</w>": 2313,
  "ಗುರು": 2314,
  "ಗುರು</w>": 2315,
  "ಗುರುಗಳ</w>": 2316,
  "ಗುರುಗಳು</w>": 2317,
  "ಗುರುತ": 2318,
  "ಗುರುತು</w>": 2319,
  "ಗುರೂ": 2320,
  "ಗುರೂಜಿಯ": 2321,
  "ಗುಲ್ವಾ": 2322,
  "ಗುಳಿ</w>": 2323,
  "ಗುಳ್ಳ": 2324,
  "ಗುಳ್ಳೆನ": 2325,
  "ಗುಳ್ಳೆನರಿ</w>": 2326,
  "ಗು೦": 2327,
  "ಗೂ": 2328,
  "ಗೂ</w>": 2329,
  "ಗೂಡ": 2330,
  "ಗೃ": 2331,
  "ಗೃಹ": 2332,
  "ಗೆ": 2333,
  "ಗೆ!</w>": 2334,
  "ಗೆ'</w>": 2335,
  "ಗೆ,</w>": 2336,
  "ಗೆ-": 2337,
  "ಗೆ--</w>": 2338,
  "ಗೆ...</w>": 2339,
  "ಗೆ.</w>": 2340,
  "ಗೆ</w>": 2341,
  "ಗೆ?</w>": 2342,
  "ಗೆಂದು</w>": 2343,
  "ಗೆಗೆ</w>": 2344,
  "ಗೆಟ್ಟು</w>": 2345,
  "ಗೆದ್ದ": 2346,
  "ಗೆದ್ದು</w>": 2347,
  "ಗೆಯ": 2348,
  "ಗೆಯ</w>": 2349,
  "ಗೆಯಲ್ಲಿ</w>": 2350,
  "ಗೆಯೂ</w>": 2351,
  "ಗೆಲ": 2352,
  "ಗೆಲಿದ": 2353,
  "ಗೆಲ್ಲ</w>": 2354,
  "ಗೆಳೆಯ": 2355,
  "ಗೆಳೆಯ</w>": 2356,
  "ಗೇ": 2357,
  "ಗೇ</w>": 2358,
  "ಗೇಕೆ</w>": 2359,
  "ಗೇಣು</w>": 2360,
  "ಗೇನು</w>": 2361,
  "ಗೇನೂ</w>": 2362,
  "ಗೇರಿ</w>": 2363,
  "ಗೇಲಿ</w>": 2364,
  "ಗೈ": 2365,
  "ಗೊ": 2366,
  "ಗೊ</w>": 2367,
  "ಗೊಂಡ": 2368,
  "ಗೊಂಡ</w>": 2369,
  "ಗೊಂಡಿದೆ.</w>": 2370,
  "ಗೊಂಡಿದೆ</w>": 2371,
  "ಗೊಂಡು</w>": 2372,
  "ಗೊಂದ": 2373,
  "ಗೊಂದು</w>": 2374,
  "ಗೊಂಬ": 2375,
  "ಗೊಂಬೆ</w>": 2376,
  "ಗೊಡ": 2377,
  "ಗೊತ್ತ": 2378,
  "ಗೊತ್ತಾ": 2379,
  "ಗೊತ್ತಾಗ": 2380,
  "ಗೊತ್ತಿ": 2381,
  "ಗೊತ್ತಿಲ್ಲ.</w>": 2382,
  "ಗೊತ್ತು.</w>": 2383,
  "ಗೊತ್ತು</w>": 2384,
  "ಗೊಬ್ಬ": 2385,
  "ಗೊಮ್ಮೆ</w>": 2386,
  "ಗೊರ": 2387,
  "ಗೊಲ್ಲ": 2388,
  "ಗೊಳ": 2389,
  "ಗೊಳಿಸ": 2390,
  "ಗೊಳಿಸಿ</w>": 2391,
  "ಗೊಳ್ಳ": 2392,
  "ಗೋ": 2393,
  "ಗೋ</w>": 2394,
  "ಗೋಕಾ": 2395,
  "ಗೋಖ": 2396,
  "ಗೋಡೆ</w>": 2397,
  "ಗೋಪ": 2398,
  "ಗೋಪಾಲ": 2399,
  "ಗೋಪಾಲಕೃಷ್ಣ</w>": 2400,
  "ಗೋವಿ": 2401,
  "ಗೋವಿಂದ": 2402,
  "ಗೋವಿಂದ-</w>": 2403,
  "ಗೋವಿಂದ</w>": 2404,
  "ಗೌ": 2405,
  "ಗೌಡ": 2406,
  "ಗೌತ": 2407,
  "ಗೌತಮ</w>": 2408,
  "ಗೌರ": 2409,
  "ಗೌರವ": 2410,
  "ಗೌರವ</w>": 2411,
  "ಗೌಳ</w>": 2412,
  "ಗ್": 2413,
  "ಗ್ಗ": 2414,
  "ಗ್ಗ</w>": 2415,
  "ಗ್ಗಿ</w>": 2416,
  "ಗ್ಗು": 2417,
  "ಗ್ಗೆ</w>": 2418,
  "ಗ್ಯ": 2419,
  "ಗ್ಯ</w>": 2420,
  "ಗ್ಯಾ": 2421,
  "ಗ್ರ": 2422,
  "ಗ್ರ</w>": 2423,
  "ಗ್ರಂಥ": 2424,
  "ಗ್ರಂಥ</w>": 2425,
  "ಗ್ರಂಥಗಳ</w>": 2426,
  "ಗ್ರಂಥಗಳನ್ನು</w>": 2427,
  "ಗ್ರಂಥದ</w>": 2428,
  "ಗ್ರಂಥವನ್ನು</w>": 2429,
  "ಗ್ರಹ": 2430,
  "ಗ್ರಹ</w>": 2431,
  "ಗ್ರಾ": 2432,
  "ಗ್ರಾಮ": 2433,
  "ಗ್ರೀ": 2434,
  "ಗ್‌": 2435,
  "ಗ್‌</w>": 2436,
  "ಗ೦": 2437,
  "ಗ೦ಡ</w>": 2438,
  "ಘ": 2439,
  "ಘ</w>": 2440,
  "ಘಟ": 2441,
  "ಘಟನೆ": 2442,
  "ಘಟನೆ</w>": 2443,
  "ಘಟ್ಟ": 2444,
  "ಘನ": 2445,
  "ಘನ</w>": 2446,
  "ಘಾ": 2447,
  "ಘಾತ": 2448,
  "ಘೋ": 2449,
  "ಘೋರ</w>": 2450,
  "ಚ": 2451,
  "ಚ</w>": 2452,
  "ಚಂಚ": 2453,
  "ಚಂದ": 2454,
  "ಚಂದಮಾ": 2455,
  "ಚಂದಮಾಮ</w>": 2456,
  "ಚಂದ್ರ": 2457,
  "ಚಂದ್ರ</w>": 2458,
  "ಚಂದ್ರಶೇಖ": 2459,
  "ಚಕ</w>": 2460,
  "ಚಕ್": 2461,
  "ಚಕ್ರ": 2462,
  "ಚಕ್ರ</w>": 2463,
  "ಚಕ್ರೇ": 2464,
  "ಚಟ": 2465,
  "ಚಟ</w>": 2466,
  "ಚದು": 2467,
  "ಚದುರಂಗ": 2468,
  "ಚದುರಂಗ</w>": 2469,
  "ಚನೆ</w>": 2470,
  "ಚಪ್ಪ": 2471,
  "ಚಯ": 2472,
  "ಚರ": 2473,
  "ಚರ</w>": 2474,
  "ಚರಣ": 2475,
  "ಚರಣ</w>": 2476,
  "ಚರಿ": 2477,
  "ಚರಿತ್ರ": 2478,
  "ಚರಿತ್ರೆ</w>": 2479,
  "ಚರಿಸ": 2480,
  "ಚರ್": 2481,
  "ಚರ್ಚ": 2482,
  "ಚರ್ಚೆ</w>": 2483,
  "ಚರ್ಮ": 2484,
  "ಚರ್ಮ</w>": 2485,
  "ಚಲ": 2486,
  "ಚಲನ": 2487,
  "ಚಲನಚಿತ್ರ</w>": 2488,
  "ಚಲಿಸ": 2489,
  "ಚಳ": 2490,
  "ಚಳವ": 2491,
  "ಚಳವಳಿಯ</w>": 2492,
  "ಚಳುವ": 2493,
  "ಚಳುವಳಿ</w>": 2494,
  "ಚಳುವಳಿಯ</w>": 2495,
  "ಚಾ": 2496,
  "ಚಾತು": 2497,
  "ಚಾಮ": 2498,
  "ಚಾರ": 2499,
  "ಚಾರ</w>": 2500,
  "ಚಾರದ</w>": 2501,
  "ಚಾರಿ": 2502,
  "ಚಾರಿ</w>": 2503,
  "ಚಾರು": 2504,
  "ಚಾರ್": 2505,
  "ಚಾರ್ಯ": 2506,
  "ಚಾರ್ಯ</w>": 2507,
  "ಚಿ": 2508,
  "ಚಿ</w>": 2509,
  "ಚಿಂತ": 2510,
  "ಚಿಂತನೆ:</w>": 2511,
  "ಚಿಂತೆ</w>": 2512,
  "ಚಿಕಿತ್": 2513,
  "ಚಿಕಿತ್ಸೆ</w>": 2514,
  "ಚಿಕ್ಕ": 2515,
  "ಚಿಕ್ಕ</w>": 2516,
  "ಚಿಕ್ಕಂದಿ": 2517,
  "ಚಿಕ್ಕಣ್ಣ</w>": 2518,
  "ಚಿತ": 2519,
  "ಚಿತ</w>": 2520,
  "ಚಿತ್": 2521,
  "ಚಿತ್ತ": 2522,
  "ಚಿತ್ರ": 2523,
  "ಚಿತ್ರ</w>": 2524,
  "ಚಿತ್ರಗಳನ್ನು</w>": 2525,
  "ಚಿತ್ರಗಳು</w>": 2526,
  "ಚಿತ್ರದ</w>": 2527,
  "ಚಿತ್ರದುರ್ಗ": 2528,
  "ಚಿತ್ರದುರ್ಗ</w>": 2529,
  "ಚಿತ್ರದುರ್ಗಕ್ಕೆ</w>": 2530,
  "ಚಿತ್ರದುರ್ಗದ</w>": 2531,
  "ಚಿತ್ರದುರ್ಗದಲ್ಲಿ</w>": 2532,
  "ಚಿತ್ರವನ್ನು</w>": 2533,
  "ಚಿತ್ರಿಸ": 2534,
  "ಚಿತ್ರೀಕ": 2535,
  "ಚಿನ</w>": 2536,
  "ಚಿನ್ನ": 2537,
  "ಚಿನ್ನದ</w>": 2538,
  "ಚಿಮ್ಮ": 2539,
  "ಚೀ": 2540,
  "ಚು": 2541,
  "ಚು</w>": 2542,
  "ಚುನಾವ": 2543,
  "ಚುರು": 2544,
  "ಚೂ": 2545,
  "ಚೆ": 2546,
  "ಚೆ</w>": 2547,
  "ಚೆಗೆ</w>": 2548,
  "ಚೆನ್ನ": 2549,
  "ಚೆನ್ನಾಗ": 2550,
  "ಚೆನ್ನಾಗಿ</w>": 2551,
  "ಚೆಲುವ": 2552,
  "ಚೆಲುವ</w>": 2553,
  "ಚೆಲ್": 2554,
  "ಚೇ": 2555,
  "ಚೈ": 2556,
  "ಚೋ": 2557,
  "ಚೌ": 2558,
  "ಚ್": 2559,
  "ಚ್ಚ": 2560,
  "ಚ್ಚ</w>": 2561,
  "ಚ್ಚರಿಕೆ</w>": 2562,
  "ಚ್ಚಿ": 2563,
  "ಚ್ಚಿ</w>": 2564,
  "ಚ್ಚಿಕೊಂಡು</w>": 2565,
  "ಚ್ಚಿನ</w>": 2566,
  "ಚ್ಛ": 2567,
  "ಚ್ಯ": 2568,
  "ಚ್‌": 2569,
  "ಚ್‌.</w>": 2570,
  "ಚ್‌</w>": 2571,
  "ಚ೦ದ್ರ": 2572,
  "ಛ": 2573,
  "ಛ</w>": 2574,
  "ಛಲ": 2575,
  "ಛಾ": 2576,
  "ಛಾಪು</w>": 2577,
  "ಛೇ": 2578,
  "ಜ": 2579,
  "ಜ</w>": 2580,
  "ಜಂ": 2581,
  "ಜಗ": 2582,
  "ಜಗ</w>": 2583,
  "ಜಗತ್ತಿನ</w>": 2584,
  "ಜಗದ್": 2585,
  "ಜಗದ್ಗುರು": 2586,
  "ಜಗಳ": 2587,
  "ಜಗ್ಗ": 2588,
  "ಜಟ</w>": 2589,
  "ಜತ</w>": 2590,
  "ಜತೆ</w>": 2591,
  "ಜತೆಗೆ</w>": 2592,
  "ಜನ": 2593,
  "ಜನ,</w>": 2594,
  "ಜನ</w>": 2595,
  "ಜನಕ</w>": 2596,
  "ಜನಕ್ಕೆ</w>": 2597,
  "ಜನತೆ</w>": 2598,
  "ಜನತೆಗೆ</w>": 2599,
  "ಜನನ": 2600,
  "ಜನನ</w>": 2601,
  "ಜನನಿ</w>": 2602,
  "ಜನಪದ</w>": 2603,
  "ಜನಪ್ರಿಯ": 2604,
  "ಜನಪ್ರಿಯ</w>": 2605,
  "ಜನರ</w>": 2606,
  "ಜನರನ್ನು</w>": 2607,
  "ಜನರಿಗೆ</w>": 2608,
  "ಜನರು</w>": 2609,
  "ಜನಸಾಮಾನ್ಯ": 2610,
  "ಜನಾ": 2611,
  "ಜನಿಸ": 2612,
  "ಜನಿಸಿ</w>": 2613,
  "ಜನಿಸಿದ": 2614,
  "ಜನ್ಮ": 2615,
  "ಜನ್ಮ</w>": 2616,
  "ಜಪ": 2617,
  "ಜಪದ": 2618,
  "ಜಪದಕಟ್ಟ": 2619,
  "ಜಯ": 2620,
  "ಜಯ</w>": 2621,
  "ಜಯದ್ರ": 2622,
  "ಜರ": 2623,
  "ಜರ</w>": 2624,
  "ಜರುಗ": 2625,
  "ಜಲ": 2626,
  "ಜವಾ": 2627,
  "ಜವಾಬ್": 2628,
  "ಜಾ": 2629,
  "ಜಾ</w>": 2630,
  "ಜಾಕ್ಷ</w>": 2631,
  "ಜಾಗ": 2632,
  "ಜಾಗ</w>": 2633,
  "ಜಾಗದಲ್ಲಿ</w>": 2634,
  "ಜಾಗೃ": 2635,
  "ಜಾಣ": 2636,
  "ಜಾತ": 2637,
  "ಜಾತ</w>": 2638,
  "ಜಾತಕ": 2639,
  "ಜಾತಕ</w>": 2640,
  "ಜಾತಿ": 2641,
  "ಜಾತಿ</w>": 2642,
  "ಜಾನ": 2643,
  "ಜಾನಪದ</w>": 2644,
  "ಜಾರ": 2645,
  "ಜಾರಿ</w>": 2646,
  "ಜಿ": 2647,
  "ಜಿ,</w>": 2648,
  "ಜಿ-": 2649,
  "ಜಿ.</w>": 2650,
  "ಜಿ</w>": 2651,
  "ಜಿಗೆ</w>": 2652,
  "ಜಿತ": 2653,
  "ಜಿನ</w>": 2654,
  "ಜಿನಲ್ಲಿ</w>": 2655,
  "ಜಿಯ": 2656,
  "ಜಿಯ</w>": 2657,
  "ಜಿಲ್ಲ": 2658,
  "ಜಿಲ್ಲೆಯ</w>": 2659,
  "ಜಿವು,</w>": 2660,
  "ಜಿವು.</w>": 2661,
  "ಜಿಹ್": 2662,
  "ಜೀ": 2663,
  "ಜೀ</w>": 2664,
  "ಜೀಕಾದ</w>": 2665,
  "ಜೀಕು,</w>": 2666,
  "ಜೀಕು.</w>": 2667,
  "ಜೀಕು</w>": 2668,
  "ಜೀನನ": 2669,
  "ಜೀನನದ</w>": 2670,
  "ಜೀರೆ</w>": 2671,
  "ಜೀವ": 2672,
  "ಜೀವ</w>": 2673,
  "ಜೀವನ": 2674,
  "ಜೀವನ,</w>": 2675,
  "ಜೀವನ</w>": 2676,
  "ಜೀವನಕ್ಕೆ</w>": 2677,
  "ಜೀವನದ</w>": 2678,
  "ಜೀವನದಲ್ಲಿ</w>": 2679,
  "ಜೀವನವನ್ನು</w>": 2680,
  "ಜೀವಾ": 2681,
  "ಜೀವಾತ್ಮ</w>": 2682,
  "ಜೀವಿ": 2683,
  "ಜೀವು": 2684,
  "ಜೀೇ": 2685,
  "ಜು": 2686,
  "ಜು</w>": 2687,
  "ಜುನ</w>": 2688,
  "ಜೂ": 2689,
  "ಜೆ": 2690,
  "ಜೆ,</w>": 2691,
  "ಜೆ.</w>": 2692,
  "ಜೆ</w>": 2693,
  "ಜೆಂಗಳೂ": 2694,
  "ಜೆಯ": 2695,
  "ಜೆಯಾ": 2696,
  "ಜೆಳ": 2697,
  "ಜೇ": 2698,
  "ಜೇ</w>": 2699,
  "ಜೇಂದ್ರ</w>": 2700,
  "ಜೇಕಾಗ": 2701,
  "ಜೇಕಾದ": 2702,
  "ಜೇಕಾದ</w>": 2703,
  "ಜೇಕು": 2704,
  "ಜೇಕು,</w>": 2705,
  "ಜೇಕು.</w>": 2706,
  "ಜೇಕು</w>": 2707,
  "ಜೇಕೆ": 2708,
  "ಜೇಕೆಂದ": 2709,
  "ಜೇಕೆಂದು</w>": 2710,
  "ಜೇಗ</w>": 2711,
  "ಜೇಡ": 2712,
  "ಜೇಬಿ": 2713,
  "ಜೇರೆ</w>": 2714,
  "ಜೇಶ": 2715,
  "ಜೇಸರ": 2716,
  "ಜೈ": 2717,
  "ಜೈಲಿ": 2718,
  "ಜೈಲಿಗೆ</w>": 2719,
  "ಜೈಲಿನ</w>": 2720,
  "ಜೈಲು</w>": 2721,
  "ಜೊ": 2722,
  "ಜೊಡ್ಡ": 2723,
  "ಜೊತೆ": 2724,
  "ಜೊತೆ</w>": 2725,
  "ಜೊತೆಗೆ</w>": 2726,
  "ಜೊತೆಯ": 2727,
  "ಜೋ": 2728,
  "ಜೋ</w>": 2729,
  "ಜೋದ್": 2730,
  "ಜೋದ್ಭವ</w>": 2731,
  "ಜ್": 2732,
  "ಜ್ಜ": 2733,
  "ಜ್ಜ</w>": 2734,
  "ಜ್ಜಿ</w>": 2735,
  "ಜ್ಞ": 2736,
  "ಜ್ಞ</w>": 2737,
  "ಜ್ಞಾ": 2738,
  "ಜ್ಞಾ</w>": 2739,
  "ಜ್ಞಾನ": 2740,
  "ಜ್ಞಾನ</w>": 2741,
  "ಜ್ಞಾನಿ": 2742,
  "ಜ್ಞಾನಿ</w>": 2743,
  "ಜ್ಞಾನೇ": 2744,
  "ಜ್ಞೆ</w>": 2745,
  "ಜ್ಯ": 2746,
  "ಜ್ಯ</w>": 2747,
  "ಜ್ಯೋ": 2748,
  "ಜ್ಯೋತಿ": 2749,
  "ಜ್ವಾ": 2750,
  "ಜ್‌": 2751,
  "ಜ್‌</w>": 2752,
  "ಞ": 2753,
  "ಟ": 2754,
  "ಟ,</w>": 2755,
  "ಟ</w>": 2756,
  "ಟಕ</w>": 2757,
  "ಟಕ್ಕೆ</w>": 2758,
  "ಟಟ</w>": 2759,
  "ಟತಾಳ</w>": 2760,
  "ಟದ</w>": 2761,
  "ಟದಲ್ಲಿ</w>": 2762,
  "ಟವ": 2763,
  "ಟಾ": 2764,
  "ಟಾ</w>": 2765,
  "ಟಿ": 2766,
  "ಟಿ,</w>": 2767,
  "ಟಿ</w>": 2768,
  "ಟಿಗೆ</w>": 2769,
  "ಟಿಯ</w>": 2770,
  "ಟಿಯಲ್ಲಿ</w>": 2771,
  "ಟೀ": 2772,
  "ಟು": 2773,
  "ಟು,</w>": 2774,
  "ಟು</w>": 2775,
  "ಟೆ": 2776,
  "ಟೆ</w>": 2777,
  "ಟೇ": 2778,
  "ಟೋ</w>": 2779,
  "ಟ್": 2780,
  "ಟ್</w>": 2781,
  "ಟ್ಟ": 2782,
  "ಟ್ಟ</w>": 2783,
  "ಟ್ಟಿ": 2784,
  "ಟ್ಟಿ</w>": 2785,
  "ಟ್ಟಿಗೆ</w>": 2786,
  "ಟ್ಟು": 2787,
  "ಟ್ಟು,</w>": 2788,
  "ಟ್ಟು</w>": 2789,
  "ಟ್ಟೆ</w>": 2790,
  "ಟ್ಯ": 2791,
  "ಟ್ರ": 2792,
  "ಟ್ರಿ</w>": 2793,
  "ಟ್‌": 2794,
  "ಟ್‌</w>": 2795,
  "ಠ": 2796,
  "ಠ</w>": 2797,
  "ಠದ</w>": 2798,
  "ಠಾ": 2799,
  "ಠಿ": 2800,
  "ಠಿ</w>": 2801,
  "ಠೊ": 2802,
  "ಡ": 2803,
  "ಡ,</w>": 2804,
  "ಡ</w>": 2805,
  "ಡಂಬ": 2806,
  "ಡಗ": 2807,
  "ಡಲು</w>": 2808,
  "ಡಾ": 2809,
  "ಡಾ.</w>": 2810,
  "ಡಾ|</w>": 2811,
  "ಡಾ||</w>": 2812,
  "ಡಾಕ</w>": 2813,
  "ಡಾಕ್ಟ": 2814,
  "ಡಾಕ್ಟರು</w>": 2815,
  "ಡಾಗ</w>": 2816,
  "ಡಿ": 2817,
  "ಡಿ'</w>": 2818,
  "ಡಿ,</w>": 2819,
  "ಡಿ.</w>": 2820,
  "ಡಿ</w>": 2821,
  "ಡಿಕೊಂಡ": 2822,
  "ಡಿಕೊಂಡು</w>": 2823,
  "ಡಿಗ": 2824,
  "ಡಿಗೆ</w>": 2825,
  "ಡಿತ": 2826,
  "ಡಿದ": 2827,
  "ಡಿದ.</w>": 2828,
  "ಡಿದ</w>": 2829,
  "ಡಿದರು.</w>": 2830,
  "ಡಿದರೆ</w>": 2831,
  "ಡಿದಾಗ</w>": 2832,
  "ಡಿದು</w>": 2833,
  "ಡಿದೆ.</w>": 2834,
  "ಡಿದೆ</w>": 2835,
  "ಡಿನ</w>": 2836,
  "ಡಿನಲ್ಲಿ</w>": 2837,
  "ಡಿಯ": 2838,
  "ಡಿಯ</w>": 2839,
  "ಡಿಯನ್ನು</w>": 2840,
  "ಡಿಯಲ್ಲಿ</w>": 2841,
  "ಡಿಸ": 2842,
  "ಡಿಸಲು</w>": 2843,
  "ಡಿಸಿ,</w>": 2844,
  "ಡಿಸಿ</w>": 2845,
  "ಡಿಸಿದ</w>": 2846,
  "ಡಿಸುವ</w>": 2847,
  "ಡಿಸ್": 2848,
  "ಡು": 2849,
  "ಡು</w>": 2850,
  "ಡುಗ": 2851,
  "ಡುಗೆ</w>": 2852,
  "ಡುತ": 2853,
  "ಡುತ</w>": 2854,
  "ಡುತಿ": 2855,
  "ಡುತ್ತಿತ್ತು.</w>": 2856,
  "ಡುನ</w>": 2857,
  "ಡುವ": 2858,
  "ಡುವ</w>": 2859,
  "ಡುವಾಗ</w>": 2860,
  "ಡೆ": 2861,
  "ಡೆ</w>": 2862,
  "ಡೆಗೆ</w>": 2863,
  "ಡೆದು</w>": 2864,
  "ಡೆಯ": 2865,
  "ಡೆಯ</w>": 2866,
  "ಡೈ": 2867,
  "ಡೊ": 2868,
  "ಡ್": 2869,
  "ಡ್ಡ": 2870,
  "ಡ್ಡ</w>": 2871,
  "ಡ್ಡಿ</w>": 2872,
  "ಡ್ಡಿಯ": 2873,
  "ಡ್ಡೆ</w>": 2874,
  "ಡ್‌": 2875,
  "ಡ್‌</w>": 2876,
  "ಢ": 2877,
  "ಢ</w>": 2878,
  "ಣ": 2879,
  "ಣ,</w>": 2880,
  "ಣ</w>": 2881,
  "ಣಕ್ಕೆ</w>": 2882,
  "ಣದ</w>": 2883,
  "ಣನ</w>": 2884,
  "ಣವನ್ನು</w>": 2885,
  "ಣಾ": 2886,
  "ಣಾ</w>": 2887,
  "ಣಿ": 2888,
  "ಣಿ'</w>": 2889,
  "ಣಿ</w>": 2890,
  "ಣಿಕ</w>": 2891,
  "ಣಿಗ": 2892,
  "ಣಿಗೆ</w>": 2893,
  "ಣಿಗೆಯ": 2894,
  "ಣಿಗೆಯ</w>": 2895,
  "ಣಿಗೆಯನ್ನು</w>": 2896,
  "ಣಿಗೆಯಲ್ಲಿ</w>": 2897,
  "ಣಿತ</w>": 2898,
  "ಣಿಯ": 2899,
  "ಣಿಯ</w>": 2900,
  "ಣಿಯಲ್ಲಿ</w>": 2901,
  "ಣಿಸ": 2902,
  "ಣಿಸಿ</w>": 2903,
  "ಣು": 2904,
  "ಣು</w>": 2905,
  "ಣೆ": 2906,
  "ಣೆ,</w>": 2907,
  "ಣೆ</w>": 2908,
  "ಣೆಯ": 2909,
  "ಣೆಯ</w>": 2910,
  "ಣೆಯನ್ನು</w>": 2911,
  "ಣ್": 2912,
  "ಣ್ಣ": 2913,
  "ಣ್ಣ,</w>": 2914,
  "ಣ್ಣ</w>": 2915,
  "ಣ್ಣನ</w>": 2916,
  "ಣ್ಣು</w>": 2917,
  "ಣ್ಣೆ</w>": 2918,
  "ಣ್ಣೆಯ</w>": 2919,
  "ಣ್ಯ": 2920,
  "ಣ್ಯ</w>": 2921,
  "ತ": 2922,
  "ತ,</w>": 2923,
  "ತ-</w>": 2924,
  "ತ.": 2925,
  "ತ.</w>": 2926,
  "ತ.ರಾ.": 2927,
  "ತ.ರಾ.ಸು,</w>": 2928,
  "ತ.ರಾ.ಸು.</w>": 2929,
  "ತ.ರಾ.ಸು</w>": 2930,
  "ತ</w>": 2931,
  "ತಂ": 2932,
  "ತಂಗ": 2933,
  "ತಂಗಿ</w>": 2934,
  "ತಂಗಿಯ": 2935,
  "ತಂಗಿಯ</w>": 2936,
  "ತಂಜ": 2937,
  "ತಂಜಿ</w>": 2938,
  "ತಂಜಿಗೆ</w>": 2939,
  "ತಂಜಿಯ": 2940,
  "ತಂಜಿಯ</w>": 2941,
  "ತಂಜಿಯನ್ನು</w>": 2942,
  "ತಂಜೆಯ": 2943,
  "ತಂಡ": 2944,
  "ತಂತ": 2945,
  "ತಂತ್ರ": 2946,
  "ತಂತ್ರ</w>": 2947,
  "ತಂದ": 2948,
  "ತಂದ</w>": 2949,
  "ತಂದಿ": 2950,
  "ತಂದಿ</w>": 2951,
  "ತಂದು": 2952,
  "ತಂದು</w>": 2953,
  "ತಂದೆ": 2954,
  "ತಂದೆ</w>": 2955,
  "ತಂದೆಗೆ</w>": 2956,
  "ತಂದೆಯ": 2957,
  "ತಂದೆಯ</w>": 2958,
  "ತಂದೆಯವರ</w>": 2959,
  "ತಂದ್": 2960,
  "ತಂಪ": 2961,
  "ತಂಬ": 2962,
  "ತಃ</w>": 2963,
  "ತಕ": 2964,
  "ತಕೆ</w>": 2965,
  "ತಕ್ಕ": 2966,
  "ತಕ್ಕ</w>": 2967,
  "ತಕ್ಕೆ</w>": 2968,
  "ತಕ್ಷಣ</w>": 2969,
  "ತಗ": 2970,
  "ತಗೆ</w>": 2971,
  "ತಗ್ಗ": 2972,
  "ತಟ": 2973,
  "ತಟಕ್ಕನೆ</w>": 2974,
  "ತಟ್ಟ": 2975,
  "ತಡ": 2976,
  "ತಡ</w>": 2977,
  "ತಡೆ": 2978,
  "ತಡೆಯ": 2979,
  "ತಣ್ಣ": 2980,
  "ತತ್": 2981,
  "ತತ್ತ್ವ": 2982,
  "ತತ್ತ್ವ</w>": 2983,
  "ತದ</w>": 2984,
  "ತನ": 2985,
  "ತನ-</w>": 2986,
  "ತನ</w>": 2987,
  "ತನಕ</w>": 2988,
  "ತನಗೆ</w>": 2989,
  "ತನದ</w>": 2990,
  "ತನದಲಿ</w>": 2991,
  "ತನನ್ನು</w>": 2992,
  "ತನಯ</w>": 2993,
  "ತನಾದ</w>": 2994,
  "ತನಿ": 2995,
  "ತನಿಗೆ</w>": 2996,
  "ತನು": 2997,
  "ತನು</w>": 2998,
  "ತನ್": 2999,
  "ತನ್ನ": 3000,
  "ತನ್ನ</w>": 3001,
  "ತನ್ಮು": 3002,
  "ತನ್ಮು</w>": 3003,
  "ತಪ": 3004,
  "ತಪ್ಪ": 3005,
  "ತಪ್ಪದೆ</w>": 3006,
  "ತಪ್ಪಿ</w>": 3007,
  "ತಪ್ಪು</w>": 3008,
  "ತಬ್": 3009,
  "ತಬ್ಬಿ": 3010,
  "ತಮ": 3011,
  "ತಮಗ": 3012,
  "ತಮಗೆ</w>": 3013,
  "ತಮಾ": 3014,
  "ತಮಿ": 3015,
  "ತಮ್ಮ": 3016,
  "ತಮ್ಮ</w>": 3017,
  "ತಮ್ಮನ</w>": 3018,
  "ತಮ್ಮನ್ನು</w>": 3019,
  "ತಮ್ಮು</w>": 3020,
  "ತಯಾ": 3021,
  "ತರ": 3022,
  "ತರ</w>": 3023,
  "ತರಂಗ": 3024,
  "ತರಂಗಿ": 3025,
  "ತರಣ": 3026,
  "ತರಲು</w>": 3027,
  "ತರಳ": 3028,
  "ತರವ": 3029,
  "ತರಹ</w>": 3030,
  "ತರಾ": 3031,
  "ತರಾಗಿ</w>": 3032,
  "ತರಾದ</w>": 3033,
  "ತರಿದು</w>": 3034,
  "ತರಿಸಿ</w>": 3035,
  "ತರಿಸಿಕೊಂಡು</w>": 3036,
  "ತರು": 3037,
  "ತರುಣಿ</w>": 3038,
  "ತರುತ್ತ": 3039,
  "ತರುವ</w>": 3040,
  "ತರೆ</w>": 3041,
  "ತಲ": 3042,
  "ತಲಿ</w>": 3043,
  "ತಲು": 3044,
  "ತಲುಪ": 3045,
  "ತಲೆ": 3046,
  "ತಲೆ</w>": 3047,
  "ತಲೆಗೆ</w>": 3048,
  "ತಲೆಯ": 3049,
  "ತಲೆಯ</w>": 3050,
  "ತಲೆಯನ್ನು</w>": 3051,
  "ತಲೆಯಲ್ಲಿ</w>": 3052,
  "ತಲ್ಲ": 3053,
  "ತಳ": 3054,
  "ತಳಕಿಗೆ</w>": 3055,
  "ತಳಕಿನ</w>": 3056,
  "ತಳಮಳ": 3057,
  "ತವ": 3058,
  "ತವ</w>": 3059,
  "ತವನ್ನು</w>": 3060,
  "ತವರಾಯ</w>": 3061,
  "ತವಾಗಿ</w>": 3062,
  "ತವಾದ</w>": 3063,
  "ತಾ": 3064,
  "ತಾ</w>": 3065,
  "ತಾತ</w>": 3066,
  "ತಾತ್": 3067,
  "ತಾತ್ವಿ": 3068,
  "ತಾತ್ವಿಕತೆ</w>": 3069,
  "ತಾನ": 3070,
  "ತಾನು</w>": 3071,
  "ತಾನೂ</w>": 3072,
  "ತಾನೆ</w>": 3073,
  "ತಾನೇ": 3074,
  "ತಾನೇ</w>": 3075,
  "ತಾಪ": 3076,
  "ತಾಮ": 3077,
  "ತಾಯ": 3078,
  "ತಾಯ</w>": 3079,
  "ತಾಯಿ": 3080,
  "ತಾಯಿ,</w>": 3081,
  "ತಾಯಿ</w>": 3082,
  "ತಾಯಿಗೆ</w>": 3083,
  "ತಾಯಿಯ": 3084,
  "ತಾಯಿಯ</w>": 3085,
  "ತಾಯಿಯನ್ನು</w>": 3086,
  "ತಾಯ್": 3087,
  "ತಾರ": 3088,
  "ತಾರ</w>": 3089,
  "ತಾರಾ": 3090,
  "ತಾರಾನಾಥ": 3091,
  "ತಾರೀ": 3092,
  "ತಾರೀಖು</w>": 3093,
  "ತಾರೆ": 3094,
  "ತಾರೆ.</w>": 3095,
  "ತಾರೆ</w>": 3096,
  "ತಾರ್ಥ": 3097,
  "ತಾಳ": 3098,
  "ತಾಳ</w>": 3099,
  "ತಾಳ?</w>": 3100,
  "ತಾಳಿ</w>": 3101,
  "ತಾಳೆ</w>": 3102,
  "ತಾಳ್": 3103,
  "ತಾವ": 3104,
  "ತಾವರಣ": 3105,
  "ತಾವು</w>": 3106,
  "ತಾವೇ</w>": 3107,
  "ತಿ": 3108,
  "ತಿ,</w>": 3109,
  "ತಿ.</w>": 3110,
  "ತಿ</w>": 3111,
  "ತಿಂ": 3112,
  "ತಿಂಗಳ": 3113,
  "ತಿಂಗಳ</w>": 3114,
  "ತಿಂಗಳಲ್ಲಿ</w>": 3115,
  "ತಿಂಗಳು</w>": 3116,
  "ತಿಂಡ": 3117,
  "ತಿಂಡಿ": 3118,
  "ತಿಂಡಿ,</w>": 3119,
  "ತಿಂಡಿ</w>": 3120,
  "ತಿಂದ": 3121,
  "ತಿಂದು</w>": 3122,
  "ತಿಗಳ</w>": 3123,
  "ತಿಗಳು</w>": 3124,
  "ತಿಗೆ</w>": 3125,
  "ತಿಥ": 3126,
  "ತಿದೆ</w>": 3127,
  "ತಿದ್ದ": 3128,
  "ತಿನ</w>": 3129,
  "ತಿನ್ನ": 3130,
  "ತಿಮ್ಮ": 3131,
  "ತಿಯ": 3132,
  "ತಿಯ</w>": 3133,
  "ತಿಯನು</w>": 3134,
  "ತಿಯನ್ನು</w>": 3135,
  "ತಿಯಲ್ಲಿ</w>": 3136,
  "ತಿಯಾಗ": 3137,
  "ತಿಯಾಗಿ</w>": 3138,
  "ತಿಯಾದ</w>": 3139,
  "ತಿಯಿಂದ</w>": 3140,
  "ತಿಯು</w>": 3141,
  "ತಿಯೆ</w>": 3142,
  "ತಿರು": 3143,
  "ತಿರುಗ": 3144,
  "ತಿರುಗಿ</w>": 3145,
  "ತಿರುಗಿದ": 3146,
  "ತಿರೆ</w>": 3147,
  "ತಿಳ": 3148,
  "ತಿಳಿದ": 3149,
  "ತಿಳಿದ</w>": 3150,
  "ತಿಳಿದು</w>": 3151,
  "ತಿಳಿಯ": 3152,
  "ತಿಳಿಸ": 3153,
  "ತಿಸ": 3154,
  "ತಿಸಿ</w>": 3155,
  "ತಿಹಾ": 3156,
  "ತೀ": 3157,
  "ತೀನಿ": 3158,
  "ತೀನಿ,</w>": 3159,
  "ತೀನಿ</w>": 3160,
  "ತೀರ": 3161,
  "ತೀರಿ": 3162,
  "ತೀರ್": 3163,
  "ತೀರ್ಥ": 3164,
  "ತೀರ್ಥ</w>": 3165,
  "ತೀರ್ಮಾ": 3166,
  "ತು": 3167,
  "ತು,</w>": 3168,
  "ತು.</w>": 3169,
  "ತು</w>": 3170,
  "ತುಂಗ": 3171,
  "ತುಂಡ": 3172,
  "ತುಂಡು</w>": 3173,
  "ತುಂಬ": 3174,
  "ತುಂಬ</w>": 3175,
  "ತುಂಬಾ</w>": 3176,
  "ತುಂಬಿ": 3177,
  "ತುಂಬಿ</w>": 3178,
  "ತುಂಬಿದ</w>": 3179,
  "ತುದಿ</w>": 3180,
  "ತುಪ್ಪ": 3181,
  "ತುಮ": 3182,
  "ತುಮಕೂ": 3183,
  "ತುಮಕೂರಿನ</w>": 3184,
  "ತುರ": 3185,
  "ತುರಗ": 3186,
  "ತುರು": 3187,
  "ತುಳುಕ": 3188,
  "ತುವ": 3189,
  "ತೂ": 3190,
  "ತೂಗ": 3191,
  "ತೃ": 3192,
  "ತೃ</w>": 3193,
  "ತೃಪ್": 3194,
  "ತೃಪ್ತಿ</w>": 3195,
  "ತೆ": 3196,
  "ತೆ,</w>": 3197,
  "ತೆ</w>": 3198,
  "ತೆಂಗ": 3199,
  "ತೆಗಳನ್ನು</w>": 3200,
  "ತೆಗಳು</w>": 3201,
  "ತೆಗೆ": 3202,
  "ತೆಗೆ</w>": 3203,
  "ತೆಗೆದು": 3204,
  "ತೆಗೆದು</w>": 3205,
  "ತೆಗೆದುಕೊಂಡ": 3206,
  "ತೆಗೆದುಕೊಂಡು</w>": 3207,
  "ತೆಗೆದುಕೊಳ್ಳ": 3208,
  "ತೆಗೆಯ": 3209,
  "ತೆಯ": 3210,
  "ತೆಯ</w>": 3211,
  "ತೆಯನ್ನು</w>": 3212,
  "ತೆಯರ</w>": 3213,
  "ತೆಯಲ್ಲಿ</w>": 3214,
  "ತೆರ": 3215,
  "ತೆರದಿ</w>": 3216,
  "ತೆರೆ": 3217,
  "ತೇ": 3218,
  "ತೈ": 3219,
  "ತೈಲ</w>": 3220,
  "ತೊ": 3221,
  "ತೊಂದ": 3222,
  "ತೊಗ": 3223,
  "ತೊಟ್ಟಿ": 3224,
  "ತೊಟ್ಟು</w>": 3225,
  "ತೊಡ": 3226,
  "ತೊಡಗ": 3227,
  "ತೊಡಗಿದ": 3228,
  "ತೊಡಗಿದ.</w>": 3229,
  "ತೊಡಗಿದರು.</w>": 3230,
  "ತೊಡಗಿದಳು.</w>": 3231,
  "ತೊಡೆ": 3232,
  "ತೊಡೆ</w>": 3233,
  "ತೊಡೆಯ</w>": 3234,
  "ತೊರೆ": 3235,
  "ತೊರೆದು</w>": 3236,
  "ತೊಳ": 3237,
  "ತೊಳೆ": 3238,
  "ತೋ": 3239,
  "ತೋಚ": 3240,
  "ತೋಟ": 3241,
  "ತೋಟ</w>": 3242,
  "ತೋಪ": 3243,
  "ತೋರ": 3244,
  "ತೋರಿ": 3245,
  "ತೋರಿ</w>": 3246,
  "ತೋರಿದ</w>": 3247,
  "ತೋರಿಸ": 3248,
  "ತೋರಿಸಿ,</w>": 3249,
  "ತೋರಿಸಿ</w>": 3250,
  "ತೋರಿಸಿದರು.</w>": 3251,
  "ತೋರು": 3252,
  "ತೋರೆ</w>": 3253,
  "ತೋರೆನಗೆ</w>": 3254,
  "ತೌ": 3255,
  "ತ್": 3256,
  "ತ್ತ": 3257,
  "ತ್ತ</w>": 3258,
  "ತ್ತಾ": 3259,
  "ತ್ತಾರು</w>": 3260,
  "ತ್ತಿ": 3261,
  "ತ್ತಿ</w>": 3262,
  "ತ್ತಿಗೆ</w>": 3263,
  "ತ್ತಿದ್ದ</w>": 3264,
  "ತ್ತಿನ</w>": 3265,
  "ತ್ತು": 3266,
  "ತ್ತು,</w>": 3267,
  "ತ್ತು.</w>": 3268,
  "ತ್ತು</w>": 3269,
  "ತ್ತೆ</w>": 3270,
  "ತ್ತೋ</w>": 3271,
  "ತ್ತ್": 3272,
  "ತ್ಮ": 3273,
  "ತ್ಮ</w>": 3274,
  "ತ್ಮಕ</w>": 3275,
  "ತ್ಯ": 3276,
  "ತ್ಯ</w>": 3277,
  "ತ್ಯಾ": 3278,
  "ತ್ರ": 3279,
  "ತ್ರ</w>": 3280,
  "ತ್ರಯ": 3281,
  "ತ್ರಯ</w>": 3282,
  "ತ್ರಾ": 3283,
  "ತ್ರಿ": 3284,
  "ತ್ರಿ</w>": 3285,
  "ತ್ರಿಯ": 3286,
  "ತ್ರೆ": 3287,
  "ತ್ರೆ</w>": 3288,
  "ತ್ರೆಗೆ</w>": 3289,
  "ತ್ವ": 3290,
  "ತ್ವ</w>": 3291,
  "ತ್ವದ</w>": 3292,
  "ತ್ವದಲ್ಲಿ</w>": 3293,
  "ತ್ಸ": 3294,
  "ತ್ಸವ</w>": 3295,
  "ತ್‌": 3296,
  "ತ್‌</w>": 3297,
  "ಥ": 3298,
  "ಥ</w>": 3299,
  "ಥನ</w>": 3300,
  "ಥರ</w>": 3301,
  "ಥಾ": 3302,
  "ಥಿ": 3303,
  "ಥಿ</w>": 3304,
  "ಥೆ</w>": 3305,
  "ಥ್": 3306,
  "ದ": 3307,
  "ದ,</w>": 3308,
  "ದ.</w>": 3309,
  "ದ</w>": 3310,
  "ದಂಗ": 3311,
  "ದಂಗೆ</w>": 3312,
  "ದಂಡ": 3313,
  "ದಂಡಿಗೆ</w>": 3314,
  "ದಂಡೆ</w>": 3315,
  "ದಂಡೆಯ</w>": 3316,
  "ದಂತ": 3317,
  "ದಂತಹ</w>": 3318,
  "ದಂತೆ</w>": 3319,
  "ದಂಥ</w>": 3320,
  "ದಂಪ": 3321,
  "ದಕ್ಕ": 3322,
  "ದಕ್ಷ": 3323,
  "ದಕ್ಷಿ": 3324,
  "ದಕ್ಷಿಣೆ</w>": 3325,
  "ದಗ": 3326,
  "ದಟ್ಟ": 3327,
  "ದಟ್ಟ</w>": 3328,
  "ದಡ": 3329,
  "ದಡ</w>": 3330,
  "ದಣ": 3331,
  "ದತ್ತ": 3332,
  "ದತ್ತ</w>": 3333,
  "ದನ": 3334,
  "ದನ</w>": 3335,
  "ದನಕ-</w>": 3336,
  "ದನಕ</w>": 3337,
  "ದನು": 3338,
  "ದನು</w>": 3339,
  "ದನೆ</w>": 3340,
  "ದನ್ನು</w>": 3341,
  "ದಪ್ಪ": 3342,
  "ದಪ್ಪ</w>": 3343,
  "ದಯ": 3344,
  "ದಯ</w>": 3345,
  "ದಯಾ": 3346,
  "ದಯ್ಯ</w>": 3347,
  "ದರ": 3348,
  "ದರ</w>": 3349,
  "ದರಿಂದ</w>": 3350,
  "ದರು.</w>": 3351,
  "ದರು</w>": 3352,
  "ದರೂ</w>": 3353,
  "ದರೆ</w>": 3354,
  "ದರ್": 3355,
  "ದರ್ಶ": 3356,
  "ದರ್ಶನ": 3357,
  "ದರ್ಶನ-೪</w>": 3358,
  "ದರ್ಶನ</w>": 3359,
  "ದಲಿ": 3360,
  "ದಲಿ</w>": 3361,
  "ದಲೆ</w>": 3362,
  "ದಲ್ಲ": 3363,
  "ದಲ್ಲ</w>": 3364,
  "ದಲ್ಲಿ": 3365,
  "ದಲ್ಲಿ,</w>": 3366,
  "ದಲ್ಲಿ.</w>": 3367,
  "ದಲ್ಲಿ</w>": 3368,
  "ದಲ್ಲಿದ್ದ</w>": 3369,
  "ದಲ್ಲಿಯೇ</w>": 3370,
  "ದಲ್ಲಿರುವ</w>": 3371,
  "ದಲ್ಲೂ</w>": 3372,
  "ದಲ್ಲೇ</w>": 3373,
  "ದಳ": 3374,
  "ದವ": 3375,
  "ದವಗೆ</w>": 3376,
  "ದವನ</w>": 3377,
  "ದವನು</w>": 3378,
  "ದವರ</w>": 3379,
  "ದವರಿಗೆ</w>": 3380,
  "ದವರು.</w>": 3381,
  "ದವರು</w>": 3382,
  "ದವರೆಲ್ಲ</w>": 3383,
  "ದಶ": 3384,
  "ದಶಕ": 3385,
  "ದಶಾ": 3386,
  "ದಶಾವತಾರ": 3387,
  "ದಶಾವತಾರ</w>": 3388,
  "ದಶಾವತಾರಗಳ</w>": 3389,
  "ದಷ್ಟು</w>": 3390,
  "ದಸ್ತ": 3391,
  "ದಸ್ತಗಿರಿ</w>": 3392,
  "ದಾ": 3393,
  "ದಾ</w>": 3394,
  "ದಾಕ್ಷಿ": 3395,
  "ದಾಕ್ಷಿಣ್ಯ": 3396,
  "ದಾಖ": 3397,
  "ದಾಖಲಿಸ": 3398,
  "ದಾಗ": 3399,
  "ದಾಗ</w>": 3400,
  "ದಾಗಿ</w>": 3401,
  "ದಾಟ": 3402,
  "ದಾಟಿ</w>": 3403,
  "ದಾಡ": 3404,
  "ದಾತ</w>": 3405,
  "ದಾತನ</w>": 3406,
  "ದಾದ</w>": 3407,
  "ದಾದರೂ</w>": 3408,
  "ದಾದಿ</w>": 3409,
  "ದಾದಿಕೇಶ": 3410,
  "ದಾನ": 3411,
  "ದಾನ</w>": 3412,
  "ದಾನವ</w>": 3413,
  "ದಾಯ": 3414,
  "ದಾಯಾ": 3415,
  "ದಾರ": 3416,
  "ದಾರ</w>": 3417,
  "ದಾರಿ</w>": 3418,
  "ದಾರಿದ್": 3419,
  "ದಾರಿಯ": 3420,
  "ದಾರಿಯಲ್ಲಿ</w>": 3421,
  "ದಾರು</w>": 3422,
  "ದಾರ್ಥ": 3423,
  "ದಾಸ": 3424,
  "ದಾಸ</w>": 3425,
  "ದಾಸನಾಗ": 3426,
  "ದಾಸಪ್ಪ</w>": 3427,
  "ದಾಸಯ್ಯ</w>": 3428,
  "ದಾಸರ</w>": 3429,
  "ದಾಸರು</w>": 3430,
  "ದಿ": 3431,
  "ದಿ,</w>": 3432,
  "ದಿ</w>": 3433,
  "ದಿಂ</w>": 3434,
  "ದಿಂದ": 3435,
  "ದಿಂದ</w>": 3436,
  "ದಿಂದಲಿ</w>": 3437,
  "ದಿಂದಲೂ</w>": 3438,
  "ದಿಂದಲೇ</w>": 3439,
  "ದಿಂದಾಗಿ</w>": 3440,
  "ದಿಂದೆ</w>": 3441,
  "ದಿಂಬ": 3442,
  "ದಿಕೇಶ": 3443,
  "ದಿಕೇಶವನ</w>": 3444,
  "ದಿಕ್": 3445,
  "ದಿಕ್ಕ": 3446,
  "ದಿಕ್ಕಿ": 3447,
  "ದಿಗ": 3448,
  "ದಿಗಳ</w>": 3449,
  "ದಿಗಳು</w>": 3450,
  "ದಿಗೆ</w>": 3451,
  "ದಿಗ್": 3452,
  "ದಿಟ": 3453,
  "ದಿಟ,</w>": 3454,
  "ದಿಟವಾಗಿ</w>": 3455,
  "ದಿಟ್ಟ": 3456,
  "ದಿತ್ತು.</w>": 3457,
  "ದಿದ್ದ": 3458,
  "ದಿದ್ದ</w>": 3459,
  "ದಿದ್ದರೂ</w>": 3460,
  "ದಿದ್ದರೆ</w>": 3461,
  "ದಿನ": 3462,
  "ದಿನ</w>": 3463,
  "ದಿನಕ್ಕೆ</w>": 3464,
  "ದಿನಗಳ": 3465,
  "ದಿನಗಳ</w>": 3466,
  "ದಿನಗಳಲ್ಲಿ</w>": 3467,
  "ದಿನದ</w>": 3468,
  "ದಿನವೂ</w>": 3469,
  "ದಿನಿ</w>": 3470,
  "ದಿಯ": 3471,
  "ದಿಯ</w>": 3472,
  "ದಿಯನ್ನು</w>": 3473,
  "ದಿಯಲ್ಲಿ</w>": 3474,
  "ದಿಯಾಗಿ</w>": 3475,
  "ದಿರ": 3476,
  "ದಿರಿ</w>": 3477,
  "ದಿರು": 3478,
  "ದಿರು</w>": 3479,
  "ದಿರುವ</w>": 3480,
  "ದಿರುವುದ": 3481,
  "ದಿರೆ</w>": 3482,
  "ದಿಲ್ಲ": 3483,
  "ದಿಲ್ಲ</w>": 3484,
  "ದಿವ": 3485,
  "ದಿವ್ಯ</w>": 3486,
  "ದಿಸ": 3487,
  "ದಿಸಿದ": 3488,
  "ದಿಹ</w>": 3489,
  "ದಿ೦ದ": 3490,
  "ದಿ೦ದ</w>": 3491,
  "ದೀ": 3492,
  "ದೀಪ": 3493,
  "ದೀಪ</w>": 3494,
  "ದೀರ್": 3495,
  "ದು": 3496,
  "ದು,</w>": 3497,
  "ದು.</w>": 3498,
  "ದು</w>": 3499,
  "ದು?</w>": 3500,
  "ದುಃ": 3501,
  "ದುಃಖ": 3502,
  "ದುಃಖ</w>": 3503,
  "ದುಕೊಂಡ": 3504,
  "ದುಕೊಂಡು</w>": 3505,
  "ದುಕೊಳ್ಳ": 3506,
  "ದುಡಿಯ": 3507,
  "ದುಡ್": 3508,
  "ದುಡ್ಡು</w>": 3509,
  "ದುದ": 3510,
  "ದುದರಿಂದ</w>": 3511,
  "ದುರ": 3512,
  "ದುರಂತ": 3513,
  "ದುರಿ": 3514,
  "ದುರಿತ": 3515,
  "ದುರಿತ</w>": 3516,
  "ದುರು": 3517,
  "ದುರು</w>": 3518,
  "ದುರುದುರು</w>": 3519,
  "ದುರ್": 3520,
  "ದುರ್ಗ": 3521,
  "ದುರ್ಗ</w>": 3522,
  "ದುರ್ಗದ</w>": 3523,
  "ದುರ್ಗಾ": 3524,
  "ದುರ್ಗಾಸ್ತ": 3525,
  "ದುರ್ಗಾಸ್ತಮಾನ": 3526,
  "ದುರ್ಜನರ</w>": 3527,
  "ದುರ್ಯೋ": 3528,
  "ದುರ್ಯೋಧ": 3529,
  "ದುಷ್": 3530,
  "ದುಷ್ಟ</w>": 3531,
  "ದೂ": 3532,
  "ದೂ,</w>": 3533,
  "ದೂ</w>": 3534,
  "ದೂತ": 3535,
  "ದೂತ</w>": 3536,
  "ದೂರ": 3537,
  "ದೂರ</w>": 3538,
  "ದೂರದ</w>": 3539,
  "ದೂರದಲ್ಲಿ</w>": 3540,
  "ದೃ": 3541,
  "ದೃಢ": 3542,
  "ದೃಢ</w>": 3543,
  "ದೃಶ್ಯ": 3544,
  "ದೃಷ್ಟ": 3545,
  "ದೃಷ್ಟಾಂತ": 3546,
  "ದೃಷ್ಟಿ</w>": 3547,
  "ದೃಷ್ಟಿಯ": 3548,
  "ದೆ": 3549,
  "ದೆ)</w>": 3550,
  "ದೆ,</w>": 3551,
  "ದೆ-</w>": 3552,
  "ದೆ.</w>": 3553,
  "ದೆ</w>": 3554,
  "ದೆ?</w>": 3555,
  "ದೆಂದು</w>": 3556,
  "ದೆಯ": 3557,
  "ದೆಯೆ</w>": 3558,
  "ದೇ": 3559,
  "ದೇ</w>": 3560,
  "ದೇನು</w>": 3561,
  "ದೇವ": 3562,
  "ದೇವ</w>": 3563,
  "ದೇವತಾ": 3564,
  "ದೇವತಾಸ್ಕುತಿ</w>": 3565,
  "ದೇವತೆ": 3566,
  "ದೇವತೆಗಳ</w>": 3567,
  "ದೇವತೆಗಳು</w>": 3568,
  "ದೇವನ</w>": 3569,
  "ದೇವರ": 3570,
  "ದೇವರ</w>": 3571,
  "ದೇವರಾಜು</w>": 3572,
  "ದೇವರು</w>": 3573,
  "ದೇವಸ್ಥಾನ": 3574,
  "ದೇವಾ": 3575,
  "ದೇವಿ</w>": 3576,
  "ದೇವಿಯ</w>": 3577,
  "ದೇವು": 3578,
  "ದೇವುಡ": 3579,
  "ದೇವುಡು.</w>": 3580,
  "ದೇವುಡು</w>": 3581,
  "ದೇಶ": 3582,
  "ದೇಶ</w>": 3583,
  "ದೇಶದ</w>": 3584,
  "ದೇಶಾ": 3585,
  "ದೇಹ": 3586,
  "ದೇಹ</w>": 3587,
  "ದೇಹದ</w>": 3588,
  "ದೈ": 3589,
  "ದೈತ್ಯ": 3590,
  "ದೈತ್ಯ</w>": 3591,
  "ದೈವ": 3592,
  "ದೈವ</w>": 3593,
  "ದೊ": 3594,
  "ದೊ</w>": 3595,
  "ದೊಂದ": 3596,
  "ದೊಂದಿಗೆ</w>": 3597,
  "ದೊಂದು</w>": 3598,
  "ದೊಡ": 3599,
  "ದೊಡನೆ</w>": 3600,
  "ದೊಡೆಯ</w>": 3601,
  "ದೊಡ್ಡ": 3602,
  "ದೊಡ್ಡ</w>": 3603,
  "ದೊಡ್ಡಪ್ಪ</w>": 3604,
  "ದೊಡ್ಡಮ್ಮಣ್ಣ": 3605,
  "ದೊಡ್ಡಮ್ಮಣ್ಣಿ</w>": 3606,
  "ದೊಡ್ಡೆ</w>": 3607,
  "ದೊರ": 3608,
  "ದೊರಕ": 3609,
  "ದೊರೆ": 3610,
  "ದೊರೆ</w>": 3611,
  "ದೊರೆಯ": 3612,
  "ದೊಳ": 3613,
  "ದೊಳಗಿ": 3614,
  "ದೊಳಗೆ</w>": 3615,
  "ದೊಳಿ": 3616,
  "ದೊಳು</w>": 3617,
  "ದೋ": 3618,
  "ದೋ</w>": 3619,
  "ದೋಷ": 3620,
  "ದ್": 3621,
  "ದ್ಕು</w>": 3622,
  "ದ್ದ": 3623,
  "ದ್ದ</w>": 3624,
  "ದ್ದನ್ನು</w>": 3625,
  "ದ್ದರಿಂದ</w>": 3626,
  "ದ್ದಾ": 3627,
  "ದ್ದಿ</w>": 3628,
  "ದ್ದು": 3629,
  "ದ್ದು,</w>": 3630,
  "ದ್ದು.</w>": 3631,
  "ದ್ದು</w>": 3632,
  "ದ್ದೂ</w>": 3633,
  "ದ್ದೆ</w>": 3634,
  "ದ್ದೇ</w>": 3635,
  "ದ್ಧ": 3636,
  "ದ್ಧ</w>": 3637,
  "ದ್ಧಾ": 3638,
  "ದ್ಧಾರ": 3639,
  "ದ್ಯ": 3640,
  "ದ್ಯ</w>": 3641,
  "ದ್ಯಾ": 3642,
  "ದ್ಯು": 3643,
  "ದ್ಯುಮ್": 3644,
  "ದ್ರ": 3645,
  "ದ್ರ</w>": 3646,
  "ದ್ರಾ": 3647,
  "ದ್ರಿ</w>": 3648,
  "ದ್ರಿಯ": 3649,
  "ದ್ರು</w>": 3650,
  "ದ್ರೂ</w>": 3651,
  "ದ್ರೆ</w>": 3652,
  "ದ್ರೋ": 3653,
  "ದ್ರೋಹಿ</w>": 3654,
  "ದ್ರೌಪ": 3655,
  "ದ್ರೌಪದಿಯ</w>": 3656,
  "ದ್ವ": 3657,
  "ದ್ವಾ": 3658,
  "ದ್ವಾರ": 3659,
  "ದ್ವಿ": 3660,
  "ದ್ವೇ": 3661,
  "ದ್ವೇಷ": 3662,
  "ದ್ವೈ": 3663,
  "ದ್ಹ": 3664,
  "ದ್‌": 3665,
  "ದ್‌</w>": 3666,
  "ಧ": 3667,
  "ಧ</w>": 3668,
  "ಧನ": 3669,
  "ಧನ</w>": 3670,
  "ಧನ್ಯ": 3671,
  "ಧರ": 3672,
  "ಧರ</w>": 3673,
  "ಧರಣ": 3674,
  "ಧರಣಿ": 3675,
  "ಧರಿಸಿ</w>": 3676,
  "ಧರಿಸಿದ": 3677,
  "ಧರಿಸಿದವನು</w>": 3678,
  "ಧರೆಯ": 3679,
  "ಧರೆಯ</w>": 3680,
  "ಧರ್ಮ": 3681,
  "ಧರ್ಮ</w>": 3682,
  "ಧರ್ಮರಾಯನ</w>": 3683,
  "ಧಾ": 3684,
  "ಧಾನ": 3685,
  "ಧಾನ</w>": 3686,
  "ಧಾನದ</w>": 3687,
  "ಧಾರ": 3688,
  "ಧಾರ</w>": 3689,
  "ಧಾರವಾಡ": 3690,
  "ಧಾರಾ": 3691,
  "ಧಾರಿ": 3692,
  "ಧಾರಿ</w>": 3693,
  "ಧಾರ್": 3694,
  "ಧಿ": 3695,
  "ಧಿ</w>": 3696,
  "ಧಿಕ</w>": 3697,
  "ಧಿಯ": 3698,
  "ಧಿಯ</w>": 3699,
  "ಧಿಯಲ್ಲಿ</w>": 3700,
  "ಧೀ": 3701,
  "ಧೀರ</w>": 3702,
  "ಧೀರನ</w>": 3703,
  "ಧು": 3704,
  "ಧುಮು": 3705,
  "ಧುರ": 3706,
  "ಧೂ": 3707,
  "ಧೃ": 3708,
  "ಧೇ": 3709,
  "ಧೈ": 3710,
  "ಧೈರ್ಯ": 3711,
  "ಧೈರ್ಯ</w>": 3712,
  "ಧೋ": 3713,
  "ಧ್": 3714,
  "ಧ್ಯ": 3715,
  "ಧ್ಯಾ": 3716,
  "ಧ್ಯಾಯ": 3717,
  "ಧ್ರುವ": 3718,
  "ಧ್ರುವ</w>": 3719,
  "ಧ್ವ": 3720,
  "ಧ್ವಜ</w>": 3721,
  "ಧ್ವನಿ": 3722,
  "ಧ್ವನಿ</w>": 3723,
  "ಧ್ವನಿಯ": 3724,
  "ಧ್ವನಿಸ": 3725,
  "ಧ್ವನಿಸುತ್ತದೆ.</w>": 3726,
  "ಧ್ವಾ": 3727,
  "ನ": 3728,
  "ನ'</w>": 3729,
  "ನ,</w>": 3730,
  "ನ-</w>": 3731,
  "ನ...</w>": 3732,
  "ನ.</w>": 3733,
  "ನ</w>": 3734,
  "ನಂ": 3735,
  "ನಂಗ": 3736,
  "ನಂಗೆ</w>": 3737,
  "ನಂಜ": 3738,
  "ನಂತ": 3739,
  "ನಂತ</w>": 3740,
  "ನಂತರ</w>": 3741,
  "ನಂತರದ</w>": 3742,
  "ನಂತೂ</w>": 3743,
  "ನಂತೆ.</w>": 3744,
  "ನಂತೆ</w>": 3745,
  "ನಂದ": 3746,
  "ನಂದ</w>": 3747,
  "ನಂದು</w>": 3748,
  "ನಂಬ": 3749,
  "ನಂಬಿ": 3750,
  "ನಂಬಿ</w>": 3751,
  "ನಂಬಿಕೆ</w>": 3752,
  "ನಂಬಿದ": 3753,
  "ನಂಬಿದ</w>": 3754,
  "ನಕ</w>": 3755,
  "ನಕ್": 3756,
  "ನಕ್ಕ": 3757,
  "ನಕ್ಕಳು.</w>": 3758,
  "ನಕ್ಕು</w>": 3759,
  "ನಕ್ಕೆ</w>": 3760,
  "ನಕ್ಷ": 3761,
  "ನಕ್ಷತ್ರ": 3762,
  "ನಗ": 3763,
  "ನಗು": 3764,
  "ನಗು</w>": 3765,
  "ನಗುತ್ತಾ</w>": 3766,
  "ನಗೆ": 3767,
  "ನಗೆ</w>": 3768,
  "ನಗ್": 3769,
  "ನಟ": 3770,
  "ನಟ</w>": 3771,
  "ನಡ": 3772,
  "ನಡು": 3773,
  "ನಡುಗ": 3774,
  "ನಡುವ": 3775,
  "ನಡುವಿನ</w>": 3776,
  "ನಡುವೆ</w>": 3777,
  "ನಡೆ": 3778,
  "ನಡೆದ": 3779,
  "ನಡೆದ.</w>": 3780,
  "ನಡೆದ</w>": 3781,
  "ನಡೆದು": 3782,
  "ನಡೆದು,</w>": 3783,
  "ನಡೆದು</w>": 3784,
  "ನಡೆಯ": 3785,
  "ನಡೆಯಿತು.</w>": 3786,
  "ನಡೆಯುತ್ತಿದ್ದ</w>": 3787,
  "ನಡೆಯುವ</w>": 3788,
  "ನಡೆಸ": 3789,
  "ನಡೆಸಿ</w>": 3790,
  "ನಡೆಸಿದ</w>": 3791,
  "ನತ್ತ": 3792,
  "ನತ್ತ</w>": 3793,
  "ನದ</w>": 3794,
  "ನದಲ್ಲಿ</w>": 3795,
  "ನದಿ</w>": 3796,
  "ನದಿಂದ</w>": 3797,
  "ನದಿಯ</w>": 3798,
  "ನನ": 3799,
  "ನನ</w>": 3800,
  "ನನಗ": 3801,
  "ನನಗಿ": 3802,
  "ನನಗೂ</w>": 3803,
  "ನನಗೆ,</w>": 3804,
  "ನನಗೆ</w>": 3805,
  "ನನಗೇ</w>": 3806,
  "ನನನು</w>": 3807,
  "ನನನ್ನು</w>": 3808,
  "ನನರ</w>": 3809,
  "ನನರು</w>": 3810,
  "ನನಾ": 3811,
  "ನನಾಗಿ</w>": 3812,
  "ನನಿಗೆ</w>": 3813,
  "ನನು": 3814,
  "ನನು</w>": 3815,
  "ನನುಗೆ</w>": 3816,
  "ನನೆ</w>": 3817,
  "ನನೊ": 3818,
  "ನನ್": 3819,
  "ನನ್ನ": 3820,
  "ನನ್ನ</w>": 3821,
  "ನನ್ನನ್ನು</w>": 3822,
  "ನನ್ನನ್ನೂ</w>": 3823,
  "ನನ್ನನ್ನೇ</w>": 3824,
  "ನನ್ನಲ್ಲಿ</w>": 3825,
  "ನನ್ನು</w>": 3826,
  "ನನ್ನೂ</w>": 3827,
  "ನನ್ನೊಂದಿಗೆ</w>": 3828,
  "ನನ್ನ್ನ</w>": 3829,
  "ನನ್ಮ</w>": 3830,
  "ನನ್ಮು": 3831,
  "ನನ್ಮು</w>": 3832,
  "ನನ್ಸ್ನ</w>": 3833,
  "ನನ್‌": 3834,
  "ನಮ": 3835,
  "ನಮಗ": 3836,
  "ನಮಗಿ": 3837,
  "ನಮಗೂ</w>": 3838,
  "ನಮಗೆ": 3839,
  "ನಮಗೆ</w>": 3840,
  "ನಮಸ್": 3841,
  "ನಮೋ</w>": 3842,
  "ನಮ್ಮ": 3843,
  "ನಮ್ಮ</w>": 3844,
  "ನಮ್ಮನ್ನು</w>": 3845,
  "ನಮ್ಮಲ್ಲಿ</w>": 3846,
  "ನಮ್ಮಿಬ್ಬ": 3847,
  "ನಮ್ಮಿಬ್ಬರ</w>": 3848,
  "ನಮ್ಮೊಂದಿಗೆ</w>": 3849,
  "ನಯ": 3850,
  "ನಯನ</w>": 3851,
  "ನಯ್ಯ</w>": 3852,
  "ನರ": 3853,
  "ನರ</w>": 3854,
  "ನರಕ": 3855,
  "ನರಕಾ": 3856,
  "ನರನ್ನು</w>": 3857,
  "ನರಳ": 3858,
  "ನರಸಿಂ": 3859,
  "ನರಸಿಂಹ": 3860,
  "ನರಸಿಂಹ</w>": 3861,
  "ನರಸಿಂಹಶಾಸ್ತ್ರಿ</w>": 3862,
  "ನರಸಿಂಹಾ": 3863,
  "ನರಸಿಂಹಾವತಾರ</w>": 3864,
  "ನರಸಿ೦": 3865,
  "ನರಹರಿ</w>": 3866,
  "ನರಹರಿಯೆ</w>": 3867,
  "ನರಿ": 3868,
  "ನರಿಗೆ</w>": 3869,
  "ನರು": 3870,
  "ನರು,</w>": 3871,
  "ನರು.</w>": 3872,
  "ನರು</w>": 3873,
  "ನರುಸ": 3874,
  "ನರುಸಪ್ಪ</w>": 3875,
  "ನರುಸಪ್ಪನ</w>": 3876,
  "ನರೂ</w>": 3877,
  "ನರೆ": 3878,
  "ನರೆಗೂ</w>": 3879,
  "ನರ್": 3880,
  "ನರ್ಷ": 3881,
  "ನರ್ಷ</w>": 3882,
  "ನರ್ಸಿ": 3883,
  "ನರ್ಸಿಂಗ್‌</w>": 3884,
  "ನಲ": 3885,
  "ನಲ</w>": 3886,
  "ನಲಿ": 3887,
  "ನಲಿ</w>": 3888,
  "ನಲ್ಲ": 3889,
  "ನಲ್ಲ,</w>": 3890,
  "ನಲ್ಲ</w>": 3891,
  "ನಲ್ಲದೆ</w>": 3892,
  "ನಲ್ಲಿ</w>": 3893,
  "ನಲ್ಲಿದ್ದ</w>": 3894,
  "ನಲ್ಲಿಯೇ</w>": 3895,
  "ನಲ್ಲೇ</w>": 3896,
  "ನಳ": 3897,
  "ನಳಿ": 3898,
  "ನಳಿನಾ": 3899,
  "ನವ": 3900,
  "ನವ</w>": 3901,
  "ನವನ್ನು</w>": 3902,
  "ನವರ": 3903,
  "ನವರ</w>": 3904,
  "ನವರನ್ನು</w>": 3905,
  "ನವರಿಗೆ</w>": 3906,
  "ನವರು.</w>": 3907,
  "ನವರು</w>": 3908,
  "ನವಿ": 3909,
  "ನವೋ": 3910,
  "ನವೋದಯ</w>": 3911,
  "ನವ್ಯ</w>": 3912,
  "ನಸು": 3913,
  "ನಾ": 3914,
  "ನಾ.</w>": 3915,
  "ನಾ</w>": 3916,
  "ನಾಕು</w>": 3917,
  "ನಾಗ": 3918,
  "ನಾಗ</w>": 3919,
  "ನಾಗಪ್ಪ</w>": 3920,
  "ನಾಗರ": 3921,
  "ನಾಗರ</w>": 3922,
  "ನಾಗಿ": 3923,
  "ನಾಗಿ,</w>": 3924,
  "ನಾಗಿ</w>": 3925,
  "ನಾಗಿದ್ದ</w>": 3926,
  "ನಾಗುತ್ತ": 3927,
  "ನಾಚಿ": 3928,
  "ನಾಟ": 3929,
  "ನಾಟಕ": 3930,
  "ನಾಟಕ</w>": 3931,
  "ನಾಟಕಗಳನ್ನು</w>": 3932,
  "ನಾಟಕಗಳು</w>": 3933,
  "ನಾಟಕದ</w>": 3934,
  "ನಾಟಕವನ್ನು</w>": 3935,
  "ನಾಟಿ</w>": 3936,
  "ನಾಡ": 3937,
  "ನಾಡಿ": 3938,
  "ನಾಡಿ</w>": 3939,
  "ನಾಡಿನ</w>": 3940,
  "ನಾಥ": 3941,
  "ನಾಥ</w>": 3942,
  "ನಾಥ್‌</w>": 3943,
  "ನಾದ": 3944,
  "ನಾದ</w>": 3945,
  "ನಾದರೂ</w>": 3946,
  "ನಾದೆ": 3947,
  "ನಾದೆ</w>": 3948,
  "ನಾದ್ರೂ</w>": 3949,
  "ನಾನ": 3950,
  "ನಾನರಿಗೆ</w>": 3951,
  "ನಾನಾ</w>": 3952,
  "ನಾನಿ": 3953,
  "ನಾನು": 3954,
  "ನಾನು,</w>": 3955,
  "ನಾನು.</w>": 3956,
  "ನಾನು</w>": 3957,
  "ನಾನೂ</w>": 3958,
  "ನಾನೇ": 3959,
  "ನಾನೇ</w>": 3960,
  "ನಾನೇನು</w>": 3961,
  "ನಾಭ</w>": 3962,
  "ನಾಮ": 3963,
  "ನಾಮ</w>": 3964,
  "ನಾಮದ</w>": 3965,
  "ನಾಮವ</w>": 3966,
  "ನಾಮಸ್ಕ": 3967,
  "ನಾಯ": 3968,
  "ನಾಯಕ": 3969,
  "ನಾಯಕ</w>": 3970,
  "ನಾಯಕರ</w>": 3971,
  "ನಾಯಕರು</w>": 3972,
  "ನಾಯಿ</w>": 3973,
  "ನಾಯಿತ": 3974,
  "ನಾಯಿತು.</w>": 3975,
  "ನಾರ": 3976,
  "ನಾರಾಯ": 3977,
  "ನಾರಾಯಣ": 3978,
  "ನಾರಾಯಣ</w>": 3979,
  "ನಾರಾಯಣನ</w>": 3980,
  "ನಾರಾಯಣಾ": 3981,
  "ನಾರಾಯಣಾ</w>": 3982,
  "ನಾರಿ</w>": 3983,
  "ನಾರಿಯ": 3984,
  "ನಾರು</w>": 3985,
  "ನಾರ್": 3986,
  "ನಾರ್ಯ": 3987,
  "ನಾಲ": 3988,
  "ನಾಲಗೆ,</w>": 3989,
  "ನಾಲಗೆ</w>": 3990,
  "ನಾಲಗೆಯ</w>": 3991,
  "ನಾಲ್": 3992,
  "ನಾಲ್ಕನ": 3993,
  "ನಾಲ್ಕನೆಯ</w>": 3994,
  "ನಾಲ್ಕಾರು</w>": 3995,
  "ನಾಲ್ಕು</w>": 3996,
  "ನಾಳೆ</w>": 3997,
  "ನಾವ": 3998,
  "ನಾವಿ": 3999,
  "ನಾವು</w>": 4000,
  "ನಾವೂ</w>": 4001,
  "ನಾಶ": 4002,
  "ನಾಶ</w>": 4003,
  "ನಾಸ": 4004,
  "ನಾಸ</w>": 4005,
  "ನಿ": 4006,
  "ನಿ'</w>": 4007,
  "ನಿ,</w>": 4008,
  "ನಿ.</w>": 4009,
  "ನಿ</w>": 4010,
  "ನಿಂಗ": 4011,
  "ನಿಂಗಾ": 4012,
  "ನಿಂತ": 4013,
  "ನಿಂತ.</w>": 4014,
  "ನಿಂತ</w>": 4015,
  "ನಿಂತಿದ್ದ.</w>": 4016,
  "ನಿಂತಿದ್ದ</w>": 4017,
  "ನಿಂತು</w>": 4018,
  "ನಿಂತುಕೊಂಡ.</w>": 4019,
  "ನಿಂದ": 4020,
  "ನಿಂದ</w>": 4021,
  "ನಿಂದಲೂ</w>": 4022,
  "ನಿಂದಾ": 4023,
  "ನಿಂದಿ": 4024,
  "ನಿಂದು</w>": 4025,
  "ನಿಂದೆ</w>": 4026,
  "ನಿಕ": 4027,
  "ನಿಕ</w>": 4028,
  "ನಿಕೋ</w>": 4029,
  "ನಿಗ": 4030,
  "ನಿಗೂ": 4031,
  "ನಿಗೂ</w>": 4032,
  "ನಿಗೂಢ</w>": 4033,
  "ನಿಗೆ</w>": 4034,
  "ನಿಜ": 4035,
  "ನಿಜ</w>": 4036,
  "ನಿಟ್ಟ": 4037,
  "ನಿಟ್ಟು</w>": 4038,
  "ನಿತಿ": 4039,
  "ನಿತಿಲ್ಲ</w>": 4040,
  "ನಿತ್ಯ": 4041,
  "ನಿತ್ಯ</w>": 4042,
  "ನಿದ": 4043,
  "ನಿದರ್ಶ": 4044,
  "ನಿದರ್ಶನ": 4045,
  "ನಿದ್": 4046,
  "ನಿದ್ದ": 4047,
  "ನಿದ್ದೆ</w>": 4048,
  "ನಿದ್ಯಾ": 4049,
  "ನಿದ್ರೆ</w>": 4050,
  "ನಿದ್ರೆಯ": 4051,
  "ನಿಧ": 4052,
  "ನಿಧಾನ": 4053,
  "ನಿಧಾನಕ್ಕೆ</w>": 4054,
  "ನಿಧಾನವಾಗಿ</w>": 4055,
  "ನಿಧಿ</w>": 4056,
  "ನಿನ": 4057,
  "ನಿನ</w>": 4058,
  "ನಿನಗ": 4059,
  "ನಿನಗೆ</w>": 4060,
  "ನಿನಾದರೂ</w>": 4061,
  "ನಿನು</w>": 4062,
  "ನಿನೂ</w>": 4063,
  "ನಿನೇನೋ</w>": 4064,
  "ನಿನೋ": 4065,
  "ನಿನೋ</w>": 4066,
  "ನಿನ್": 4067,
  "ನಿನ್ನ": 4068,
  "ನಿನ್ನ</w>": 4069,
  "ನಿನ್ನದು</w>": 4070,
  "ನಿನ್ನನ್ನು</w>": 4071,
  "ನಿನ್ನಯ</w>": 4072,
  "ನಿನ್ಮು</w>": 4073,
  "ನಿಪ</w>": 4074,
  "ನಿಮಗೆ</w>": 4075,
  "ನಿಮಿ": 4076,
  "ನಿಮಿಷ": 4077,
  "ನಿಮಿಷ</w>": 4078,
  "ನಿಮ್ಮ": 4079,
  "ನಿಮ್ಮ</w>": 4080,
  "ನಿಮ್ಮನ್ನು</w>": 4081,
  "ನಿಮ್ಮು</w>": 4082,
  "ನಿಯ": 4083,
  "ನಿಯ</w>": 4084,
  "ನಿಯನ್ನು</w>": 4085,
  "ನಿರ": 4086,
  "ನಿರಂತ": 4087,
  "ನಿರಲಿಲ್ಲ.</w>": 4088,
  "ನಿರಾ": 4089,
  "ನಿರಾಶ": 4090,
  "ನಿರೀಕ್ಷ": 4091,
  "ನಿರು": 4092,
  "ನಿರೂಪ": 4093,
  "ನಿರ್": 4094,
  "ನಿರ್ಣ": 4095,
  "ನಿರ್ದೇಶ": 4096,
  "ನಿರ್ಧ": 4097,
  "ನಿರ್ಧಾರ": 4098,
  "ನಿರ್ಧಾರ</w>": 4099,
  "ನಿರ್ಧಾರಕ್ಕೆ</w>": 4100,
  "ನಿರ್ಮ": 4101,
  "ನಿರ್ಮಾ": 4102,
  "ನಿರ್ವ": 4103,
  "ನಿರ್ವಹ": 4104,
  "ನಿಲ": 4105,
  "ನಿಲುವ": 4106,
  "ನಿಲುವು</w>": 4107,
  "ನಿಲ್": 4108,
  "ನಿಲ್ಲ": 4109,
  "ನಿಲ್ಲ.</w>": 4110,
  "ನಿಲ್ಲ</w>": 4111,
  "ನಿಲ್ಲದೆ</w>": 4112,
  "ನಿಲ್ಲಿಸಿ</w>": 4113,
  "ನಿವಾ": 4114,
  "ನಿಶ್": 4115,
  "ನಿಶ್ಚ": 4116,
  "ನಿಶ್ಚಯ": 4117,
  "ನಿಷ": 4118,
  "ನಿಷಯ": 4119,
  "ನಿಷಯ</w>": 4120,
  "ನಿಷ್ಠ": 4121,
  "ನಿಸ": 4122,
  "ನಿಸಿ": 4123,
  "ನಿಸಿ,</w>": 4124,
  "ನಿಸಿ</w>": 4125,
  "ನಿಸಿತು.</w>": 4126,
  "ನಿಸಿದ": 4127,
  "ನಿಸಿದ</w>": 4128,
  "ನಿಸಿದರು.</w>": 4129,
  "ನಿಸೆ": 4130,
  "ನಿ೦ದ</w>": 4131,
  "ನೀ": 4132,
  "ನೀ</w>": 4133,
  "ನೀಗ</w>": 4134,
  "ನೀಡ": 4135,
  "ನೀಡಿ,</w>": 4136,
  "ನೀಡಿ</w>": 4137,
  "ನೀಡಿದ": 4138,
  "ನೀಡಿದ</w>": 4139,
  "ನೀಡಿದರು.</w>": 4140,
  "ನೀಡುವ</w>": 4141,
  "ನೀತ</w>": 4142,
  "ನೀತಿ</w>": 4143,
  "ನೀನ": 4144,
  "ನೀನಿ": 4145,
  "ನೀನು": 4146,
  "ನೀನು</w>": 4147,
  "ನೀನೆ</w>": 4148,
  "ನೀನೇ": 4149,
  "ನೀನೇ</w>": 4150,
  "ನೀಯ": 4151,
  "ನೀರ": 4152,
  "ನೀರ</w>": 4153,
  "ನೀರನ್ನು</w>": 4154,
  "ನೀರಿ": 4155,
  "ನೀರಿಗೆ</w>": 4156,
  "ನೀರಿನ</w>": 4157,
  "ನೀರು,</w>": 4158,
  "ನೀರು</w>": 4159,
  "ನೀರೊಳಗೆ</w>": 4160,
  "ನೀಲ": 4161,
  "ನೀವು</w>": 4162,
  "ನು": 4163,
  "ನು'</w>": 4164,
  "ನು,</w>": 4165,
  "ನು.</w>": 4166,
  "ನು</w>": 4167,
  "ನು?</w>": 4168,
  "ನುಂಗ": 4169,
  "ನುಂಗಿ</w>": 4170,
  "ನುಗ": 4171,
  "ನುಗು</w>": 4172,
  "ನುಗೆ</w>": 4173,
  "ನುಗ್ಗ": 4174,
  "ನುಡಿ": 4175,
  "ನುಡಿ</w>": 4176,
  "ನುಡಿಗ": 4177,
  "ನುಡಿಯ": 4178,
  "ನುಡಿಯ</w>": 4179,
  "ನುಡಿಯಲ್ಲಿ</w>": 4180,
  "ನುತ</w>": 4181,
  "ನುತ್ತ": 4182,
  "ನುಭವ": 4183,
  "ನುಭೋ": 4184,
  "ನೂ": 4185,
  "ನೂ</w>": 4186,
  "ನೂರಾರು</w>": 4187,
  "ನೂರು</w>": 4188,
  "ನೃ": 4189,
  "ನೃತ್ಯ": 4190,
  "ನೃಪ": 4191,
  "ನೆ": 4192,
  "ನೆ'</w>": 4193,
  "ನೆ,</w>": 4194,
  "ನೆ-</w>": 4195,
  "ನೆ...</w>": 4196,
  "ನೆ.</w>": 4197,
  "ನೆ:</w>": 4198,
  "ನೆ</w>": 4199,
  "ನೆ?</w>": 4200,
  "ನೆಂಕ": 4201,
  "ನೆಂಕಟ": 4202,
  "ನೆಂಟ": 4203,
  "ನೆಂಟರಿಷ್ಟ": 4204,
  "ನೆಂದ": 4205,
  "ನೆಂದು</w>": 4206,
  "ನೆಂದೂ</w>": 4207,
  "ನೆಂದೆ": 4208,
  "ನೆಂಬ": 4209,
  "ನೆಂಬ</w>": 4210,
  "ನೆಂಬುದ": 4211,
  "ನೆಗ": 4212,
  "ನೆಗಳ</w>": 4213,
  "ನೆಗಳನ್ನು</w>": 4214,
  "ನೆಗಳು</w>": 4215,
  "ನೆಗೆ": 4216,
  "ನೆಗೆ</w>": 4217,
  "ನೆಟ್ಟ": 4218,
  "ನೆತ್ತ": 4219,
  "ನೆನ": 4220,
  "ನೆನಪ": 4221,
  "ನೆನಪಿಗೆ</w>": 4222,
  "ನೆನಪು</w>": 4223,
  "ನೆನೆ": 4224,
  "ನೆನೆ</w>": 4225,
  "ನೆನೆದು</w>": 4226,
  "ನೆನೆಯ": 4227,
  "ನೆಮ್ಮ": 4228,
  "ನೆಯ": 4229,
  "ನೆಯ</w>": 4230,
  "ನೆಯನ್ನು</w>": 4231,
  "ನೆಯಲ್ಲಿ</w>": 4232,
  "ನೆಯಿಂದ</w>": 4233,
  "ನೆಯೇ</w>": 4234,
  "ನೆರ": 4235,
  "ನೆರಳ": 4236,
  "ನೆರಳು</w>": 4237,
  "ನೆರವು</w>": 4238,
  "ನೆರೆ": 4239,
  "ನೆರೆ</w>": 4240,
  "ನೆಲ": 4241,
  "ನೆಲಕ್ಕೆ</w>": 4242,
  "ನೆಲೆ": 4243,
  "ನೆಲೆ</w>": 4244,
  "ನೆಲೆಯ": 4245,
  "ನೆಲೆಯ</w>": 4246,
  "ನೆಲೆಯಾ": 4247,
  "ನೆಲೆಯಾದಿ</w>": 4248,
  "ನೆಲೆಯಾದಿಕೇಶ": 4249,
  "ನೆಲೆಯಾದಿಕೇಶವನ</w>": 4250,
  "ನೆಲೊ</w>": 4251,
  "ನೆಲ್ಲ": 4252,
  "ನೆಲ್ಲ</w>": 4253,
  "ನೆಲ್ಲಿ</w>": 4254,
  "ನೇ": 4255,
  "ನೇ</w>": 4256,
  "ನೇತ್ರ": 4257,
  "ನೇತ್ರ</w>": 4258,
  "ನೇನು</w>": 4259,
  "ನೇನೋ</w>": 4260,
  "ನೇಮ": 4261,
  "ನೇರವಾಗಿ</w>": 4262,
  "ನೇರಿ</w>": 4263,
  "ನೇಳ": 4264,
  "ನೈ": 4265,
  "ನೊ": 4266,
  "ನೊ</w>": 4267,
  "ನೊಂದ": 4268,
  "ನೊಂದಿಗೆ</w>": 4269,
  "ನೊಂದು</w>": 4270,
  "ನೊಂದೆ</w>": 4271,
  "ನೊದ": 4272,
  "ನೊಬ್ಬ": 4273,
  "ನೊಬ್ಬ</w>": 4274,
  "ನೊಲಿದುಪ್ಪವಡಿಸಯ್ಯ</w>": 4275,
  "ನೊಳ": 4276,
  "ನೊಳಗೆ</w>": 4277,
  "ನೋ": 4278,
  "ನೋ,</w>": 4279,
  "ನೋ</w>": 4280,
  "ನೋಟ": 4281,
  "ನೋಟ</w>": 4282,
  "ನೋಡ": 4283,
  "ನೋಡ</w>": 4284,
  "ನೋಡಲು</w>": 4285,
  "ನೋಡಿ": 4286,
  "ನೋಡಿ,</w>": 4287,
  "ನೋಡಿ</w>": 4288,
  "ನೋಡಿಕೊಂಡು</w>": 4289,
  "ನೋಡಿಕೊಳ್ಳ": 4290,
  "ನೋಡಿಜಾಗ</w>": 4291,
  "ನೋಡಿಡಾಗ</w>": 4292,
  "ನೋಡಿದ": 4293,
  "ನೋಡಿದ.</w>": 4294,
  "ನೋಡಿದ</w>": 4295,
  "ನೋಡಿದರು.</w>": 4296,
  "ನೋಡಿದರೆ</w>": 4297,
  "ನೋಡಿದಾಗ": 4298,
  "ನೋಡಿದಾಗ</w>": 4299,
  "ನೋಡಿದಾಗೆ</w>": 4300,
  "ನೋಡಿದೆ.</w>": 4301,
  "ನೋಡಿದೆವು.</w>": 4302,
  "ನೋಡು": 4303,
  "ನೋಡು,</w>": 4304,
  "ನೋಡು</w>": 4305,
  "ನೋಡುತ್ತಾ</w>": 4306,
  "ನೋಡುತ್ತಿದ್ದ": 4307,
  "ನೋಡುವ</w>": 4308,
  "ನೋಡೆ</w>": 4309,
  "ನೋಡ್": 4310,
  "ನೋದ": 4311,
  "ನೋಯ": 4312,
  "ನೋರ</w>": 4313,
  "ನೋವನ್ನು</w>": 4314,
  "ನೋವಿ": 4315,
  "ನೋವು": 4316,
  "ನೋವು</w>": 4317,
  "ನೌ": 4318,
  "ನ್": 4319,
  "ನ್</w>": 4320,
  "ನ್ಗೆ</w>": 4321,
  "ನ್ನ": 4322,
  "ನ್ನ</w>": 4323,
  "ನ್ನಾ": 4324,
  "ನ್ನಾಗ": 4325,
  "ನ್ನಾಗಿ</w>": 4326,
  "ನ್ನಿ": 4327,
  "ನ್ನಿ</w>": 4328,
  "ನ್ನು": 4329,
  "ನ್ನು,</w>": 4330,
  "ನ್ನು</w>": 4331,
  "ನ್ನೂ</w>": 4332,
  "ನ್ನೆ": 4333,
  "ನ್ನೆ</w>": 4334,
  "ನ್ನೆಲ್ಲ</w>": 4335,
  "ನ್ನೇ": 4336,
  "ನ್ನೇ</w>": 4337,
  "ನ್ನೈಲ್ಲ</w>": 4338,
  "ನ್ನ್": 4339,
  "ನ್ನ್ನು</w>": 4340,
  "ನ್ಮ": 4341,
  "ನ್ಮ</w>": 4342,
  "ನ್ಮು": 4343,
  "ನ್ಮು</w>": 4344,
  "ನ್ಮೆ</w>": 4345,
  "ನ್ಯ": 4346,
  "ನ್ಯ</w>": 4347,
  "ನ್ಯಾ": 4348,
  "ನ್ಯಾಯ": 4349,
  "ನ್ಯಾಯ</w>": 4350,
  "ನ್ಯಾಸಿ</w>": 4351,
  "ನ್ಶ್ಯಾ</w>": 4352,
  "ನ್ಸಿ": 4353,
  "ನ್ಸೈ": 4354,
  "ನ್ಸ್‌</w>": 4355,
  "ನ್‌": 4356,
  "ನ್‌,</w>": 4357,
  "ನ್‌</w>": 4358,
  "ನ”</w>": 4359,
  "ಪ": 4360,
  "ಪ</w>": 4361,
  "ಪ॥</w>": 4362,
  "ಪಂ": 4363,
  "ಪಂಕ": 4364,
  "ಪಂಚ": 4365,
  "ಪಂಚ</w>": 4366,
  "ಪಂಚಭೂತ": 4367,
  "ಪಂಚಾ": 4368,
  "ಪಂಚೇ": 4369,
  "ಪಂಜ": 4370,
  "ಪಂಡ": 4371,
  "ಪಂಡಿತ": 4372,
  "ಪಂಡಿತ</w>": 4373,
  "ಪಂತ": 4374,
  "ಪಂತುವ": 4375,
  "ಪಂತುವರಾಳಿ</w>": 4376,
  "ಪಕ್ಕ": 4377,
  "ಪಕ್ಕ</w>": 4378,
  "ಪಕ್ಕದ</w>": 4379,
  "ಪಕ್ಕದಲ್ಲಿ</w>": 4380,
  "ಪಕ್ಕದಲ್ಲೇ</w>": 4381,
  "ಪಕ್ಷ": 4382,
  "ಪಕ್ಷದ</w>": 4383,
  "ಪಕ್ಷಿ": 4384,
  "ಪಕ್ಷಿ</w>": 4385,
  "ಪಟ</w>": 4386,
  "ಪಟ್ಟ": 4387,
  "ಪಟ್ಟ</w>": 4388,
  "ಪಟ್ಟಣ": 4389,
  "ಪಟ್ಟಣದ</w>": 4390,
  "ಪಟ್ಟಾ": 4391,
  "ಪಟ್ಟಿ": 4392,
  "ಪಟ್ಟಿ</w>": 4393,
  "ಪಟ್ಟು</w>": 4394,
  "ಪಟ್ಟೆ</w>": 4395,
  "ಪಠ": 4396,
  "ಪಠ್ಯ": 4397,
  "ಪಡ": 4398,
  "ಪಡಿಸ": 4399,
  "ಪಡಿಸಿದ</w>": 4400,
  "ಪಡಿಸುವ</w>": 4401,
  "ಪಡೆ": 4402,
  "ಪಡೆದ": 4403,
  "ಪಡೆದ</w>": 4404,
  "ಪಡೆದು</w>": 4405,
  "ಪಡೆಯ": 4406,
  "ಪಡೆಯಲು</w>": 4407,
  "ಪಡ್": 4408,
  "ಪತಿ": 4409,
  "ಪತಿ</w>": 4410,
  "ಪತಿಯ</w>": 4411,
  "ಪತ್": 4412,
  "ಪತ್ರ": 4413,
  "ಪತ್ರ</w>": 4414,
  "ಪತ್ರಿ": 4415,
  "ಪತ್ರಿಕೆ": 4416,
  "ಪತ್ರಿಕೆ</w>": 4417,
  "ಪತ್ರಿಕೆಯ</w>": 4418,
  "ಪತ್ರಿಕೆಯಲ್ಲಿ</w>": 4419,
  "ಪಥ": 4420,
  "ಪದ": 4421,
  "ಪದ</w>": 4422,
  "ಪದಲ್ಲಿ</w>": 4423,
  "ಪದವ": 4424,
  "ಪದವಿ</w>": 4425,
  "ಪದವಿಯ": 4426,
  "ಪದಾರ್ಥ": 4427,
  "ಪದು": 4428,
  "ಪದುಮ": 4429,
  "ಪದ್": 4430,
  "ಪದ್ಧ": 4431,
  "ಪದ್ಧತಿ</w>": 4432,
  "ಪದ್ಯ": 4433,
  "ಪದ್ಯ</w>": 4434,
  "ಪನ</w>": 4435,
  "ಪನೆ</w>": 4436,
  "ಪನ್ನ": 4437,
  "ಪರ": 4438,
  "ಪರ</w>": 4439,
  "ಪರಂ": 4440,
  "ಪರಂಪ": 4441,
  "ಪರಬ್ರಹ್ಮ</w>": 4442,
  "ಪರಮ": 4443,
  "ಪರಮ</w>": 4444,
  "ಪರಮಾ": 4445,
  "ಪರಮಾತ್": 4446,
  "ಪರಮಾತ್ಮ": 4447,
  "ಪರಮಾತ್ಮ</w>": 4448,
  "ಪರಮಾತ್ಮನ</w>": 4449,
  "ಪರರ</w>": 4450,
  "ಪರವಾಗಿ</w>": 4451,
  "ಪರಶು": 4452,
  "ಪರಶುರಾಮಾವತಾರ</w>": 4453,
  "ಪರಸ್ಪರ</w>": 4454,
  "ಪರಹಿ": 4455,
  "ಪರಾ": 4456,
  "ಪರಿ": 4457,
  "ಪರಿ</w>": 4458,
  "ಪರಿಚ": 4459,
  "ಪರಿಚಯ": 4460,
  "ಪರಿಚಯ</w>": 4461,
  "ಪರಿಚಿತ": 4462,
  "ಪರಿಣಾ": 4463,
  "ಪರಿಣಾಮ</w>": 4464,
  "ಪರಿಪೂರ್ಣ</w>": 4465,
  "ಪರಿಯ": 4466,
  "ಪರಿಯ</w>": 4467,
  "ಪರಿಯಲಿ</w>": 4468,
  "ಪರಿಷ": 4469,
  "ಪರಿಸ್ಥಿತಿ</w>": 4470,
  "ಪರಿಹ": 4471,
  "ಪರೀಕ್ಷ": 4472,
  "ಪರೀಕ್ಷೆ</w>": 4473,
  "ಪರ್": 4474,
  "ಪರ್ವ": 4475,
  "ಪರ್ವತ</w>": 4476,
  "ಪರ್ವತವನ್ನು</w>": 4477,
  "ಪಲ್ಲ": 4478,
  "ಪಳ": 4479,
  "ಪವಿ": 4480,
  "ಪವಿತ್ರ</w>": 4481,
  "ಪಶು": 4482,
  "ಪಶ್ಚಿ": 4483,
  "ಪಶ್ಚಿಮ</w>": 4484,
  "ಪಾ": 4485,
  "ಪಾ</w>": 4486,
  "ಪಾಂಡ": 4487,
  "ಪಾಂಡಿ": 4488,
  "ಪಾಟು</w>": 4489,
  "ಪಾಠ": 4490,
  "ಪಾಠ</w>": 4491,
  "ಪಾಡ": 4492,
  "ಪಾಡಿಗೆ</w>": 4493,
  "ಪಾತಕ": 4494,
  "ಪಾತಾಳ": 4495,
  "ಪಾತ್ರ": 4496,
  "ಪಾತ್ರ</w>": 4497,
  "ಪಾತ್ರವನ್ನು</w>": 4498,
  "ಪಾತ್ರೆ</w>": 4499,
  "ಪಾದ": 4500,
  "ಪಾದ</w>": 4501,
  "ಪಾದಕಮಲ</w>": 4502,
  "ಪಾದಾ": 4503,
  "ಪಾನ": 4504,
  "ಪಾಪ": 4505,
  "ಪಾಪ</w>": 4506,
  "ಪಾಮರ</w>": 4507,
  "ಪಾಯ": 4508,
  "ಪಾರ": 4509,
  "ಪಾರಮಾ": 4510,
  "ಪಾರಮಾರ್ಥಿಕ</w>": 4511,
  "ಪಾರಾಯ": 4512,
  "ಪಾರಾಯಣ</w>": 4513,
  "ಪಾರಿ": 4514,
  "ಪಾರ್": 4515,
  "ಪಾರ್ವ": 4516,
  "ಪಾರ್ವತಿ</w>": 4517,
  "ಪಾಲ": 4518,
  "ಪಾಲ</w>": 4519,
  "ಪಾಲಿ": 4520,
  "ಪಾಲಿಗೆ</w>": 4521,
  "ಪಾಲಿಸ": 4522,
  "ಪಾಲು</w>": 4523,
  "ಪಾಲ್": 4524,
  "ಪಾವ": 4525,
  "ಪಾವನ": 4526,
  "ಪಾವನ</w>": 4527,
  "ಪಾಶ": 4528,
  "ಪಿ": 4529,
  "ಪಿ.</w>": 4530,
  "ಪಿ</w>": 4531,
  "ಪಿಂಡ": 4532,
  "ಪಿಡಿದ": 4533,
  "ಪಿಡಿದು</w>": 4534,
  "ಪಿತ": 4535,
  "ಪಿತ</w>": 4536,
  "ಪಿತನ</w>": 4537,
  "ಪೀ": 4538,
  "ಪೀಠ</w>": 4539,
  "ಪೀತಾ": 4540,
  "ಪು": 4541,
  "ಪು.": 4542,
  "ಪು.ತಿ": 4543,
  "ಪು</w>": 4544,
  "ಪುಂಡ": 4545,
  "ಪುಟ": 4546,
  "ಪುಟ</w>": 4547,
  "ಪುಟ್ಟ": 4548,
  "ಪುಟ್ಟ</w>": 4549,
  "ಪುಣ": 4550,
  "ಪುಣ್ಯ": 4551,
  "ಪುಣ್ಯ</w>": 4552,
  "ಪುತ್ರ": 4553,
  "ಪುತ್ರ</w>": 4554,
  "ಪುದು</w>": 4555,
  "ಪುನ": 4556,
  "ಪುರ": 4557,
  "ಪುರ</w>": 4558,
  "ಪುರಂದ": 4559,
  "ಪುರಂದರ": 4560,
  "ಪುರಂದರ</w>": 4561,
  "ಪುರದ</w>": 4562,
  "ಪುರಾ": 4563,
  "ಪುರಾಣ": 4564,
  "ಪುರುಷ": 4565,
  "ಪುರುಷ</w>": 4566,
  "ಪುರುಷೋತ್ತ": 4567,
  "ಪುಷ್ಪ": 4568,
  "ಪುಸ್ತ": 4569,
  "ಪುಸ್ತಕ": 4570,
  "ಪುಸ್ತಕ'</w>": 4571,
  "ಪುಸ್ತಕ</w>": 4572,
  "ಪುಸ್ತಕಗಳನ್ನು</w>": 4573,
  "ಪುಸ್ತಕದ</w>": 4574,
  "ಪೂ": 4575,
  "ಪೂಜ": 4576,
  "ಪೂಜಾರ": 4577,
  "ಪೂಜೆ": 4578,
  "ಪೂಜೆ</w>": 4579,
  "ಪೂಜೆಯ</w>": 4580,
  "ಪೂರೈ": 4581,
  "ಪೂರ್": 4582,
  "ಪೂರ್ಣ": 4583,
  "ಪೂರ್ಣ</w>": 4584,
  "ಪೂರ್ಣವಾಗಿ</w>": 4585,
  "ಪೂರ್ತಿ</w>": 4586,
  "ಪೂರ್ವ": 4587,
  "ಪೂರ್ವ</w>": 4588,
  "ಪೂರ್ವಾ": 4589,
  "ಪೂರ್ವಿ</w>": 4590,
  "ಪೃ": 4591,
  "ಪೃಥ್": 4592,
  "ಪೆ": 4593,
  "ಪೆ</w>": 4594,
  "ಪೆಸರ": 4595,
  "ಪೇ": 4596,
  "ಪೇಕ್ಷ": 4597,
  "ಪೇಳ": 4598,
  "ಪೈ": 4599,
  "ಪೊ": 4600,
  "ಪೊಕ್ಕು</w>": 4601,
  "ಪೊಗಳ": 4602,
  "ಪೊಡ": 4603,
  "ಪೊಡವಿ": 4604,
  "ಪೊಡವಿ</w>": 4605,
  "ಪೊತ್ತ": 4606,
  "ಪೊತ್ತು</w>": 4607,
  "ಪೊರೆ": 4608,
  "ಪೊರೆವ</w>": 4609,
  "ಪೋ": 4610,
  "ಪೋಗಿ</w>": 4611,
  "ಪೋಲಿಸ": 4612,
  "ಪೋಲಿಸರು</w>": 4613,
  "ಪೋಲಿಸ್‌</w>": 4614,
  "ಪೋಲೀ": 4615,
  "ಪೋಲೀಸಿ": 4616,
  "ಪೋಷ": 4617,
  "ಪೌ": 4618,
  "ಪೌರಾ": 4619,
  "ಪೌರಾಣಿಕ</w>": 4620,
  "ಪ್": 4621,
  "ಪ್ಟ": 4622,
  "ಪ್ತ": 4623,
  "ಪ್ತ</w>": 4624,
  "ಪ್ಪ": 4625,
  "ಪ್ಪ,</w>": 4626,
  "ಪ್ಪ</w>": 4627,
  "ಪ್ಪನ</w>": 4628,
  "ಪ್ಪನವರ</w>": 4629,
  "ಪ್ಪನವರು</w>": 4630,
  "ಪ್ಪನಿಗೆ</w>": 4631,
  "ಪ್ಪವಡಿಸ": 4632,
  "ಪ್ಪಾ": 4633,
  "ಪ್ಪೆ</w>": 4634,
  "ಪ್ಯಾ": 4635,
  "ಪ್ರ": 4636,
  "ಪ್ರ</w>": 4637,
  "ಪ್ರಕ": 4638,
  "ಪ್ರಕಟ": 4639,
  "ಪ್ರಕಾರ": 4640,
  "ಪ್ರಕಾರ</w>": 4641,
  "ಪ್ರಕಾಶ": 4642,
  "ಪ್ರಕಾಶಕರು</w>": 4643,
  "ಪ್ರಗತಿ": 4644,
  "ಪ್ರಚ": 4645,
  "ಪ್ರಚಾರ": 4646,
  "ಪ್ರಚಾರ</w>": 4647,
  "ಪ್ರಜಾ": 4648,
  "ಪ್ರಜ್ಞ": 4649,
  "ಪ್ರಣ": 4650,
  "ಪ್ರತ": 4651,
  "ಪ್ರತಿ": 4652,
  "ಪ್ರತಿ</w>": 4653,
  "ಪ್ರತಿಭ": 4654,
  "ಪ್ರತಿಭಟ": 4655,
  "ಪ್ರತಿಭೆ</w>": 4656,
  "ಪ್ರತಿಯ": 4657,
  "ಪ್ರತಿಯಾಗಿ</w>": 4658,
  "ಪ್ರತಿಯೊಂದು</w>": 4659,
  "ಪ್ರತಿಷ್ಠಾ": 4660,
  "ಪ್ರತೀ": 4661,
  "ಪ್ರತ್ಯ": 4662,
  "ಪ್ರಥ": 4663,
  "ಪ್ರಥಮ</w>": 4664,
  "ಪ್ರದರ್ಶ": 4665,
  "ಪ್ರದರ್ಶನ": 4666,
  "ಪ್ರದೇಶ": 4667,
  "ಪ್ರದ್ಯುಮ್": 4668,
  "ಪ್ರಧಾನ</w>": 4669,
  "ಪ್ರಪಂಚ": 4670,
  "ಪ್ರಪಂಚ</w>": 4671,
  "ಪ್ರಬಂಧ": 4672,
  "ಪ್ರಬಂಧ</w>": 4673,
  "ಪ್ರಬಲ</w>": 4674,
  "ಪ್ರಭ": 4675,
  "ಪ್ರಭಾ": 4676,
  "ಪ್ರಭಾಕಂ": 4677,
  "ಪ್ರಭಾಕರ": 4678,
  "ಪ್ರಭಾಕರ್‌</w>": 4679,
  "ಪ್ರಭಾವ": 4680,
  "ಪ್ರಭಾವ</w>": 4681,
  "ಪ್ರಭು": 4682,
  "ಪ್ರಮುಖ</w>": 4683,
  "ಪ್ರಯತ್": 4684,
  "ಪ್ರಯತ್ನ</w>": 4685,
  "ಪ್ರಯತ್ನಿಸ": 4686,
  "ಪ್ರಯಾ": 4687,
  "ಪ್ರಯಾಣ</w>": 4688,
  "ಪ್ರಯೋಗ": 4689,
  "ಪ್ರಯೋಗ</w>": 4690,
  "ಪ್ರಳ": 4691,
  "ಪ್ರಳಯ": 4692,
  "ಪ್ರವಾಸ</w>": 4693,
  "ಪ್ರವಾಹ": 4694,
  "ಪ್ರವೇಶ</w>": 4695,
  "ಪ್ರಶ": 4696,
  "ಪ್ರಶಸ್": 4697,
  "ಪ್ರಶಸ್ತಿ</w>": 4698,
  "ಪ್ರಶ್": 4699,
  "ಪ್ರಶ್ನೆ</w>": 4700,
  "ಪ್ರಶ್ನೆಗೆ</w>": 4701,
  "ಪ್ರಸಂಗ": 4702,
  "ಪ್ರಸಂಗ.</w>": 4703,
  "ಪ್ರಸಂಗ</w>": 4704,
  "ಪ್ರಸಾ": 4705,
  "ಪ್ರಸಾದ": 4706,
  "ಪ್ರಸಿದ್ಧ": 4707,
  "ಪ್ರಸಿದ್ಧ</w>": 4708,
  "ಪ್ರಸ್ತಾ": 4709,
  "ಪ್ರಸ್ತಾಪ": 4710,
  "ಪ್ರಸ್ತಾವನೆ</w>": 4711,
  "ಪ್ರಹ್": 4712,
  "ಪ್ರಹ್ಲಾದ": 4713,
  "ಪ್ರಹ್ಲಾದ</w>": 4714,
  "ಪ್ರಾ": 4715,
  "ಪ್ರಾಕೃತ</w>": 4716,
  "ಪ್ರಾಚೀ": 4717,
  "ಪ್ರಾಚೀನ</w>": 4718,
  "ಪ್ರಾಣ": 4719,
  "ಪ್ರಾಣ</w>": 4720,
  "ಪ್ರಾಣಿ</w>": 4721,
  "ಪ್ರಾಪ": 4722,
  "ಪ್ರಾಪಂಚಿ": 4723,
  "ಪ್ರಾಪ್": 4724,
  "ಪ್ರಾಯ": 4725,
  "ಪ್ರಾರಂಭ": 4726,
  "ಪ್ರಾರ್ಥ": 4727,
  "ಪ್ರಿ": 4728,
  "ಪ್ರಿಯ": 4729,
  "ಪ್ರಿಯ</w>": 4730,
  "ಪ್ರೀ": 4731,
  "ಪ್ರೀತಿ,</w>": 4732,
  "ಪ್ರೀತಿ</w>": 4733,
  "ಪ್ರೀತಿಯ": 4734,
  "ಪ್ರೀತಿಯ</w>": 4735,
  "ಪ್ರೀತಿಯಿಂದ</w>": 4736,
  "ಪ್ರೇ": 4737,
  "ಪ್ರೇಮ": 4738,
  "ಪ್ರೊ": 4739,
  "ಪ್ರೊ.</w>": 4740,
  "ಪ್ರೋತ್": 4741,
  "ಪ್ರೌ": 4742,
  "ಪ್ರೌಢ": 4743,
  "ಪ್‌": 4744,
  "ಪ್‌</w>": 4745,
  "ಪ೦": 4746,
  "ಫ": 4747,
  "ಫ</w>": 4748,
  "ಫಣಿ": 4749,
  "ಫಲ": 4750,
  "ಫಲ</w>": 4751,
  "ಫಾ": 4752,
  "ಫಿ": 4753,
  "ಫಿ</w>": 4754,
  "ಫೀ": 4755,
  "ಫು": 4756,
  "ಫೆ": 4757,
  "ಫೇ": 4758,
  "ಫೋ": 4759,
  "ಫೋನ್‌</w>": 4760,
  "ಫ್": 4761,
  "ಫ್‌</w>": 4762,
  "ಬ": 4763,
  "ಬ,</w>": 4764,
  "ಬ</w>": 4765,
  "ಬಂ": 4766,
  "ಬಂಕಾ": 4767,
  "ಬಂಗಾ": 4768,
  "ಬಂಗಾರ": 4769,
  "ಬಂಟ": 4770,
  "ಬಂಡ": 4771,
  "ಬಂಡೆ": 4772,
  "ಬಂಡೆ</w>": 4773,
  "ಬಂತ": 4774,
  "ಬಂತು.</w>": 4775,
  "ಬಂತು</w>": 4776,
  "ಬಂದ": 4777,
  "ಬಂದ.</w>": 4778,
  "ಬಂದ</w>": 4779,
  "ಬಂದದ್ದು</w>": 4780,
  "ಬಂದರು,</w>": 4781,
  "ಬಂದರು.</w>": 4782,
  "ಬಂದರು</w>": 4783,
  "ಬಂದರೂ</w>": 4784,
  "ಬಂದರೆ</w>": 4785,
  "ಬಂದಳು.</w>": 4786,
  "ಬಂದಾಗ": 4787,
  "ಬಂದಾಗ,</w>": 4788,
  "ಬಂದಾಗ</w>": 4789,
  "ಬಂದಿ": 4790,
  "ಬಂದಿತು.</w>": 4791,
  "ಬಂದಿತ್ತು.</w>": 4792,
  "ಬಂದಿದೆ.</w>": 4793,
  "ಬಂದಿದೆ</w>": 4794,
  "ಬಂದಿದ್ದ": 4795,
  "ಬಂದಿದ್ದ</w>": 4796,
  "ಬಂದಿದ್ದರು.</w>": 4797,
  "ಬಂದಿದ್ದೀ": 4798,
  "ಬಂದಿರುವ</w>": 4799,
  "ಬಂದು,</w>": 4800,
  "ಬಂದು</w>": 4801,
  "ಬಂದೆ": 4802,
  "ಬಂದೆ.</w>": 4803,
  "ಬಂದೆ</w>": 4804,
  "ಬಂದೆವು.</w>": 4805,
  "ಬಂದ್": 4806,
  "ಬಂಧ": 4807,
  "ಬಂಧಿ": 4808,
  "ಬಂಧು": 4809,
  "ಬಂಧು</w>": 4810,
  "ಬಕೆ": 4811,
  "ಬಕೆಯ": 4812,
  "ಬಗ": 4813,
  "ಬಗೆ": 4814,
  "ಬಗೆ</w>": 4815,
  "ಬಗೆಗೆ</w>": 4816,
  "ಬಗೆಯ": 4817,
  "ಬಗೆಯ</w>": 4818,
  "ಬಗ್": 4819,
  "ಬಗ್ಗ": 4820,
  "ಬಗ್ಗೆ,</w>": 4821,
  "ಬಗ್ಗೆ</w>": 4822,
  "ಬಗ್ಗೆಯೂ</w>": 4823,
  "ಬಜ</w>": 4824,
  "ಬಟ</w>": 4825,
  "ಬಟ್ಟ": 4826,
  "ಬಟ್ಟಿ</w>": 4827,
  "ಬಟ್ಟೆ</w>": 4828,
  "ಬಟ್ಟೆಗಾಗಿ</w>": 4829,
  "ಬಡ": 4830,
  "ಬಡತನ": 4831,
  "ಬಡತನ</w>": 4832,
  "ಬಡಿ": 4833,
  "ಬಡಿದು</w>": 4834,
  "ಬಡಿಯ": 4835,
  "ಬಡ್ಡ": 4836,
  "ಬಣ್ಣ": 4837,
  "ಬಣ್ಣ</w>": 4838,
  "ಬಣ್ಣದ</w>": 4839,
  "ಬತ್ತ": 4840,
  "ಬದ": 4841,
  "ಬದಲಾಯ": 4842,
  "ಬದಲು</w>": 4843,
  "ಬದು": 4844,
  "ಬದುಕ": 4845,
  "ಬದುಕನ್ನು</w>": 4846,
  "ಬದುಕಿದೆ": 4847,
  "ಬದುಕಿನ</w>": 4848,
  "ಬದುಕು</w>": 4849,
  "ಬನ್": 4850,
  "ಬನ್ನ": 4851,
  "ಬನ್ನಿ": 4852,
  "ಬಯ": 4853,
  "ಬಯಕೆ</w>": 4854,
  "ಬಯಸ": 4855,
  "ಬಯಸಿ</w>": 4856,
  "ಬರ": 4857,
  "ಬರ</w>": 4858,
  "ಬರಲಿಲ್ಲ": 4859,
  "ಬರಲಿಲ್ಲ.</w>": 4860,
  "ಬರಲು</w>": 4861,
  "ಬರವ": 4862,
  "ಬರವಣಿಗೆ</w>": 4863,
  "ಬರವಣಿಗೆಯ</w>": 4864,
  "ಬರಹ": 4865,
  "ಬರಹ</w>": 4866,
  "ಬರಹಗಾರ": 4867,
  "ಬರಿ": 4868,
  "ಬರಿ</w>": 4869,
  "ಬರಿದೆ</w>": 4870,
  "ಬರೀ": 4871,
  "ಬರೀ</w>": 4872,
  "ಬರು": 4873,
  "ಬರು</w>": 4874,
  "ಬರುತ್ತ": 4875,
  "ಬರುತ್ತದೆ.</w>": 4876,
  "ಬರುತ್ತಾ": 4877,
  "ಬರುತ್ತಿತ್ತು.</w>": 4878,
  "ಬರುತ್ತಿದ್ದ": 4879,
  "ಬರುತ್ತಿದ್ದ</w>": 4880,
  "ಬರುತ್ತಿದ್ದರು.</w>": 4881,
  "ಬರುತ್ತೇ": 4882,
  "ಬರುವ</w>": 4883,
  "ಬರುವಾಗ</w>": 4884,
  "ಬರುವುದ": 4885,
  "ಬರುವುದಿ": 4886,
  "ಬರೆ": 4887,
  "ಬರೆ</w>": 4888,
  "ಬರೆದ": 4889,
  "ಬರೆದ</w>": 4890,
  "ಬರೆದರು.</w>": 4891,
  "ಬರೆದಿದ್ದ": 4892,
  "ಬರೆದು": 4893,
  "ಬರೆದು,</w>": 4894,
  "ಬರೆದು</w>": 4895,
  "ಬರೆದುಕೊಳ್ಳ": 4896,
  "ಬರೆದೆ</w>": 4897,
  "ಬರೆಯ": 4898,
  "ಬರೆಯಲು</w>": 4899,
  "ಬರೆಯುವ</w>": 4900,
  "ಬರೆಸ": 4901,
  "ಬರೆಸಲು</w>": 4902,
  "ಬರೆಸಿ</w>": 4903,
  "ಬರೆಹ": 4904,
  "ಬರೋ": 4905,
  "ಬರ್": 4906,
  "ಬರ್‌": 4907,
  "ಬಲ": 4908,
  "ಬಲ</w>": 4909,
  "ಬಲವಂತ": 4910,
  "ಬಲವಂತ</w>": 4911,
  "ಬಲವಾಗಿ</w>": 4912,
  "ಬಲಿ": 4913,
  "ಬಲಿ</w>": 4914,
  "ಬಲಿಯ": 4915,
  "ಬಲಿಯ</w>": 4916,
  "ಬಲು</w>": 4917,
  "ಬಲ್ಲ": 4918,
  "ಬಲ್ಲ</w>": 4919,
  "ಬಲ್ಲೆ</w>": 4920,
  "ಬಲ್‌</w>": 4921,
  "ಬಳ": 4922,
  "ಬಳಲ": 4923,
  "ಬಳಸ": 4924,
  "ಬಳಸಿ</w>": 4925,
  "ಬಳಿ": 4926,
  "ಬಳಿ</w>": 4927,
  "ಬಳಿಕ,</w>": 4928,
  "ಬಳಿಕ</w>": 4929,
  "ಬಳಿಗೆ</w>": 4930,
  "ಬಳಿಯ": 4931,
  "ಬಳಿಯ</w>": 4932,
  "ಬಳೆ": 4933,
  "ಬಳೆಸರ</w>": 4934,
  "ಬಳ್ಳ": 4935,
  "ಬಸ": 4936,
  "ಬಸವ": 4937,
  "ಬಸ್": 4938,
  "ಬಸ್ಸಿ": 4939,
  "ಬಸ್ಸಿನಲ್ಲಿ</w>": 4940,
  "ಬಹ": 4941,
  "ಬಹಳ</w>": 4942,
  "ಬಹಿ": 4943,
  "ಬಹು": 4944,
  "ಬಹು</w>": 4945,
  "ಬಹುದಿತ್ತು.</w>": 4946,
  "ಬಹುದು": 4947,
  "ಬಹುದು.</w>": 4948,
  "ಬಹುದು</w>": 4949,
  "ಬಹುದೆ</w>": 4950,
  "ಬಹುಮಾನ</w>": 4951,
  "ಬಹುಶಃ</w>": 4952,
  "ಬಾ": 4953,
  "ಬಾ</w>": 4954,
  "ಬಾಗ": 4955,
  "ಬಾಗಿ": 4956,
  "ಬಾಗಿ</w>": 4957,
  "ಬಾಗಿಲ": 4958,
  "ಬಾಗಿಲ</w>": 4959,
  "ಬಾಗಿಲು</w>": 4960,
  "ಬಾಡ": 4961,
  "ಬಾಡದಾದಿಕೇಶ": 4962,
  "ಬಾಡಿಗೆ</w>": 4963,
  "ಬಾಣ": 4964,
  "ಬಾಣ</w>": 4965,
  "ಬಾಧ": 4966,
  "ಬಾಯ": 4967,
  "ಬಾಯಾ": 4968,
  "ಬಾಯಿ": 4969,
  "ಬಾಯಿ</w>": 4970,
  "ಬಾಯಿಂದ</w>": 4971,
  "ಬಾಯಿಗೆ</w>": 4972,
  "ಬಾಯ್": 4973,
  "ಬಾರ": 4974,
  "ಬಾರದ</w>": 4975,
  "ಬಾರದಿ": 4976,
  "ಬಾರದು": 4977,
  "ಬಾರದು-</w>": 4978,
  "ಬಾರದು.</w>": 4979,
  "ಬಾರದು</w>": 4980,
  "ಬಾರದೆ": 4981,
  "ಬಾರದೆ</w>": 4982,
  "ಬಾರಿ</w>": 4983,
  "ಬಾರಿಗೆ</w>": 4984,
  "ಬಾರೊ</w>": 4985,
  "ಬಾಲ": 4986,
  "ಬಾಲ</w>": 4987,
  "ಬಾಲಕ": 4988,
  "ಬಾಲಕ</w>": 4989,
  "ಬಾಲ್": 4990,
  "ಬಾಲ್ಯ": 4991,
  "ಬಾಳ": 4992,
  "ಬಾಳಿನಲ್ಲಿ</w>": 4993,
  "ಬಾಳು</w>": 4994,
  "ಬಾಳೆ": 4995,
  "ಬಿ": 4996,
  "ಬಿ.": 4997,
  "ಬಿ.</w>": 4998,
  "ಬಿ</w>": 4999,
  "ಬಿಗ": 5000,
  "ಬಿಚ್ಚ": 5001,
  "ಬಿಚ್ಚಿ</w>": 5002,
  "ಬಿಟ</w>": 5003,
  "ಬಿಟ್ಟ": 5004,
  "ಬಿಟ್ಟ.</w>": 5005,
  "ಬಿಟ್ಟ</w>": 5006,
  "ಬಿಟ್ಟರು.</w>": 5007,
  "ಬಿಟ್ಟರೆ</w>": 5008,
  "ಬಿಟ್ಟಿ": 5009,
  "ಬಿಟ್ಟಿ</w>": 5010,
  "ಬಿಟ್ಟು": 5011,
  "ಬಿಟ್ಟು,</w>": 5012,
  "ಬಿಟ್ಟು</w>": 5013,
  "ಬಿಡ": 5014,
  "ಬಿಡದೆ</w>": 5015,
  "ಬಿಡಲು</w>": 5016,
  "ಬಿಡಾ": 5017,
  "ಬಿಡಿಸ": 5018,
  "ಬಿಡಿಸಿ</w>": 5019,
  "ಬಿಡು": 5020,
  "ಬಿಡು</w>": 5021,
  "ಬಿಡುಗ": 5022,
  "ಬಿಡುಗಡೆ</w>": 5023,
  "ಬಿಡುವ": 5024,
  "ಬಿಡುವ</w>": 5025,
  "ಬಿಡ್": 5026,
  "ಬಿತ್ತ": 5027,
  "ಬಿತ್ತು.</w>": 5028,
  "ಬಿದ": 5029,
  "ಬಿದಿರ</w>": 5030,
  "ಬಿದ್ದ": 5031,
  "ಬಿದ್ದ</w>": 5032,
  "ಬಿದ್ದಾ": 5033,
  "ಬಿದ್ದಿದ್ದ</w>": 5034,
  "ಬಿದ್ದು</w>": 5035,
  "ಬಿನುಗು</w>": 5036,
  "ಬಿನ್ನ": 5037,
  "ಬಿರು": 5038,
  "ಬಿರುದು</w>": 5039,
  "ಬಿಲ್ಲ": 5040,
  "ಬಿಳಿ": 5041,
  "ಬಿಸ": 5042,
  "ಬಿಸಿ": 5043,
  "ಬಿಸಿ</w>": 5044,
  "ಬಿಸಿಲು</w>": 5045,
  "ಬಿಸು": 5046,
  "ಬೀ": 5047,
  "ಬೀಜ": 5048,
  "ಬೀಜ</w>": 5049,
  "ಬೀದಿ</w>": 5050,
  "ಬೀಳ": 5051,
  "ಬೀಳ್": 5052,
  "ಬೀಸುವ</w>": 5053,
  "ಬು": 5054,
  "ಬು</w>": 5055,
  "ಬುಟ್ಟ": 5056,
  "ಬುಟ್ಟು</w>": 5057,
  "ಬುಡ": 5058,
  "ಬುಡ್": 5059,
  "ಬುದ್ಧ": 5060,
  "ಬುದ್ಧಿ": 5061,
  "ಬುದ್ಧಿ</w>": 5062,
  "ಬುದ್ಧಿಯ</w>": 5063,
  "ಬೂ": 5064,
  "ಬೃ": 5065,
  "ಬೃಹ": 5066,
  "ಬೆ": 5067,
  "ಬೆಂಕ": 5068,
  "ಬೆಂಕಿ</w>": 5069,
  "ಬೆಂಗಳೂ": 5070,
  "ಬೆಂಗಳೂರಿಗೆ</w>": 5071,
  "ಬೆಂಗಳೂರಿನ</w>": 5072,
  "ಬೆಂಗಳೂರಿನಲ್ಲಿ</w>": 5073,
  "ಬೆಂಗಳೂರಿನಿಂದ</w>": 5074,
  "ಬೆಂಗಳೂರು</w>": 5075,
  "ಬೆಂಬ": 5076,
  "ಬೆಟ್ಟ": 5077,
  "ಬೆಡ": 5078,
  "ಬೆದ": 5079,
  "ಬೆನ್ನ": 5080,
  "ಬೆನ್ನ</w>": 5081,
  "ಬೆನ್ನು</w>": 5082,
  "ಬೆರ": 5083,
  "ಬೆರಳ": 5084,
  "ಬೆರೆ": 5085,
  "ಬೆಲೆ</w>": 5086,
  "ಬೆಳ": 5087,
  "ಬೆಳಕು</w>": 5088,
  "ಬೆಳಗಾ": 5089,
  "ಬೆಳಿಗ್ಗೆ</w>": 5090,
  "ಬೆಳೆ": 5091,
  "ಬೆಳೆದ</w>": 5092,
  "ಬೆಳೆದು</w>": 5093,
  "ಬೆಳೆಯ": 5094,
  "ಬೆಳ್ಳ": 5095,
  "ಬೆಳ್ಳಕ್ಕ": 5096,
  "ಬೆಳ್ಳಕ್ಕಿ</w>": 5097,
  "ಬೆ೦ಗಳ": 5098,
  "ಬೆ೦ಗಳೂರು</w>": 5099,
  "ಬೇ": 5100,
  "ಬೇಂದ್ರ": 5101,
  "ಬೇಕ": 5102,
  "ಬೇಕಾಗ": 5103,
  "ಬೇಕಾಗಿ": 5104,
  "ಬೇಕಾಗಿತ್ತು.</w>": 5105,
  "ಬೇಕಾಗುತ್ತದೆ.</w>": 5106,
  "ಬೇಕಾದ": 5107,
  "ಬೇಕಾದ</w>": 5108,
  "ಬೇಕಾದರೂ</w>": 5109,
  "ಬೇಕಾದರೆ</w>": 5110,
  "ಬೇಕಿ": 5111,
  "ಬೇಕಿತ್ತು.</w>": 5112,
  "ಬೇಕು": 5113,
  "ಬೇಕು'</w>": 5114,
  "ಬೇಕು,</w>": 5115,
  "ಬೇಕು.</w>": 5116,
  "ಬೇಕು</w>": 5117,
  "ಬೇಕು?</w>": 5118,
  "ಬೇಕೆ": 5119,
  "ಬೇಕೆ</w>": 5120,
  "ಬೇಕೆಂದ": 5121,
  "ಬೇಕೆಂದು</w>": 5122,
  "ಬೇಕೆಂಬ</w>": 5123,
  "ಬೇಗ": 5124,
  "ಬೇಗ</w>": 5125,
  "ಬೇಡ": 5126,
  "ಬೇಡ</w>": 5127,
  "ಬೇಡಿ": 5128,
  "ಬೇಡಿ'</w>": 5129,
  "ಬೇಡಿ</w>": 5130,
  "ಬೇಡೆ": 5131,
  "ಬೇರೆ</w>": 5132,
  "ಬೇರೆಯ": 5133,
  "ಬೇಸರ": 5134,
  "ಬೇಸರ</w>": 5135,
  "ಬೇಸರಿಸ": 5136,
  "ಬೈ": 5137,
  "ಬೊ": 5138,
  "ಬೊಂಬ": 5139,
  "ಬೊಂಬಾ": 5140,
  "ಬೋ": 5141,
  "ಬೋಧ": 5142,
  "ಬೋಧನೆ</w>": 5143,
  "ಬೋರೆಯ</w>": 5144,
  "ಬೌ": 5145,
  "ಬೌದ್ಧಾ": 5146,
  "ಬೌದ್ಧಾವತಾರ</w>": 5147,
  "ಬ್": 5148,
  "ಬ್ಬ": 5149,
  "ಬ್ಬ</w>": 5150,
  "ಬ್ಬರ</w>": 5151,
  "ಬ್ಬರು</w>": 5152,
  "ಬ್ಬರೂ</w>": 5153,
  "ಬ್ಬಾ": 5154,
  "ಬ್ಬಿ": 5155,
  "ಬ್ಬಿ</w>": 5156,
  "ಬ್ಯಾ": 5157,
  "ಬ್ಯಾಡ</w>": 5158,
  "ಬ್ರ": 5159,
  "ಬ್ರ</w>": 5160,
  "ಬ್ರಹ": 5161,
  "ಬ್ರಹ್ಮ": 5162,
  "ಬ್ರಹ್ಮ</w>": 5163,
  "ಬ್ರಹ್ಮನ</w>": 5164,
  "ಬ್ರಹ್ಮಾ": 5165,
  "ಬ್ರಹ್ಮಾಂಡ</w>": 5166,
  "ಬ್ರಾ": 5167,
  "ಬ್ರಾಹ್ಮ": 5168,
  "ಬ್ರಾಹ್ಮಣ": 5169,
  "ಬ್ರಾಹ್ಮಣ</w>": 5170,
  "ಬ್ರಿ": 5171,
  "ಬ್ರಿಟಿ": 5172,
  "ಬ್ಲ": 5173,
  "ಬ್‌": 5174,
  "ಬ್‌</w>": 5175,
  "ಬ೦": 5176,
  "ಬ೦ದ": 5177,
  "ಬ೦ದ</w>": 5178,
  "ಭ": 5179,
  "ಭ,</w>": 5180,
  "ಭ</w>": 5181,
  "ಭಂಗ": 5182,
  "ಭಂಗ</w>": 5183,
  "ಭಂಟ": 5184,
  "ಭಂಡ": 5185,
  "ಭಕು": 5186,
  "ಭಕುತಿ</w>": 5187,
  "ಭಕ್": 5188,
  "ಭಕ್ತ": 5189,
  "ಭಕ್ತ</w>": 5190,
  "ಭಕ್ತನ</w>": 5191,
  "ಭಕ್ತರ": 5192,
  "ಭಕ್ತರ</w>": 5193,
  "ಭಕ್ತಿ": 5194,
  "ಭಕ್ತಿ</w>": 5195,
  "ಭಕ್ತಿಯ": 5196,
  "ಭಕ್ತಿಯ</w>": 5197,
  "ಭಗ": 5198,
  "ಭಗವ": 5199,
  "ಭಗವಂತ": 5200,
  "ಭಗವದನು": 5201,
  "ಭಗವದನುಸಂ": 5202,
  "ಭಗವಾ": 5203,
  "ಭಜ": 5204,
  "ಭಜಿ": 5205,
  "ಭಜಿಸ": 5206,
  "ಭಜಿಸಿ</w>": 5207,
  "ಭಟ": 5208,
  "ಭಟ್ಟ": 5209,
  "ಭಟ್ಟರು</w>": 5210,
  "ಭದ್ರ": 5211,
  "ಭನ</w>": 5212,
  "ಭಯ": 5213,
  "ಭಯ</w>": 5214,
  "ಭಯಂಕರ</w>": 5215,
  "ಭರ": 5216,
  "ಭರಣ": 5217,
  "ಭರಣ</w>": 5218,
  "ಭರದಿಂದ</w>": 5219,
  "ಭರವ": 5220,
  "ಭರವಸೆ</w>": 5221,
  "ಭವ": 5222,
  "ಭವ</w>": 5223,
  "ಭವನ": 5224,
  "ಭವಿಷ": 5225,
  "ಭಾ": 5226,
  "ಭಾ</w>": 5227,
  "ಭಾಗ": 5228,
  "ಭಾಗ</w>": 5229,
  "ಭಾಗದ</w>": 5230,
  "ಭಾಗದಲ್ಲಿ</w>": 5231,
  "ಭಾಗವ": 5232,
  "ಭಾಗವತ</w>": 5233,
  "ಭಾಗವತರ</w>": 5234,
  "ಭಾಗವನ್ನು</w>": 5235,
  "ಭಾಗವಹ": 5236,
  "ಭಾಗ್ಯ": 5237,
  "ಭಾಗ್ಯ</w>": 5238,
  "ಭಾನ": 5239,
  "ಭಾನ</w>": 5240,
  "ಭಾನುವಾ": 5241,
  "ಭಾರ": 5242,
  "ಭಾರ</w>": 5243,
  "ಭಾರತ</w>": 5244,
  "ಭಾರತದ</w>": 5245,
  "ಭಾರತೀ": 5246,
  "ಭಾರತೀಯ</w>": 5247,
  "ಭಾರಿ</w>": 5248,
  "ಭಾರ್ಗ": 5249,
  "ಭಾಳ</w>": 5250,
  "ಭಾವ": 5251,
  "ಭಾವ-</w>": 5252,
  "ಭಾವ.</w>": 5253,
  "ಭಾವ</w>": 5254,
  "ಭಾವದ</w>": 5255,
  "ಭಾವನ": 5256,
  "ಭಾವನೆ</w>": 5257,
  "ಭಾವವಿದೆ.</w>": 5258,
  "ಭಾಷ": 5259,
  "ಭಾಷಣ": 5260,
  "ಭಾಷಣ</w>": 5261,
  "ಭಾಷಣಗಳನ್ನು</w>": 5262,
  "ಭಾಷೆ</w>": 5263,
  "ಭಾಷೆಯ</w>": 5264,
  "ಭಾಷೆಯಲ್ಲಿ</w>": 5265,
  "ಭಿ": 5266,
  "ಭಿ</w>": 5267,
  "ಭಿಕ್ಷ": 5268,
  "ಭಿನ್ನ</w>": 5269,
  "ಭಿಮಾನ": 5270,
  "ಭಿಮಾನ</w>": 5271,
  "ಭೀ": 5272,
  "ಭೀತಿ</w>": 5273,
  "ಭೀಮ": 5274,
  "ಭೀಮರಾಯ</w>": 5275,
  "ಭೀಷ": 5276,
  "ಭೀಷಣ": 5277,
  "ಭೀಷ್ಮ": 5278,
  "ಭು": 5279,
  "ಭುಜ": 5280,
  "ಭುವ": 5281,
  "ಭುವನ</w>": 5282,
  "ಭೂ": 5283,
  "ಭೂ</w>": 5284,
  "ಭೂತ": 5285,
  "ಭೂತ</w>": 5286,
  "ಭೂಪಾ": 5287,
  "ಭೂಮ": 5288,
  "ಭೂಮಿ": 5289,
  "ಭೂಮಿ</w>": 5290,
  "ಭೂಮಿಯ": 5291,
  "ಭೂಮಿಯ</w>": 5292,
  "ಭೂಮಿಯನ್ನು</w>": 5293,
  "ಭೃ": 5294,
  "ಭೃಗು</w>": 5295,
  "ಭೇ": 5296,
  "ಭೇದ": 5297,
  "ಭೈ": 5298,
  "ಭೈರವಿ</w>": 5299,
  "ಭೋ": 5300,
  "ಭೋಗ": 5301,
  "ಭೌ": 5302,
  "ಭ್ಯಾ": 5303,
  "ಭ್ರ": 5304,
  "ಭ್ರಮ": 5305,
  "ಭ್ರಷ್ಟ": 5306,
  "ಭ್ರಾ": 5307,
  "ಮ": 5308,
  "ಮ,</w>": 5309,
  "ಮ.</w>": 5310,
  "ಮ</w>": 5311,
  "ಮಂ": 5312,
  "ಮಂ.</w>": 5313,
  "ಮಂಕು</w>": 5314,
  "ಮಂಗ": 5315,
  "ಮಂಗಳ": 5316,
  "ಮಂಗಳ</w>": 5317,
  "ಮಂಗಳಂ</w>": 5318,
  "ಮಂಚ": 5319,
  "ಮಂಚದ</w>": 5320,
  "ಮಂಜ": 5321,
  "ಮಂಟ": 5322,
  "ಮಂಟಪ": 5323,
  "ಮಂಡ": 5324,
  "ಮಂಡಲ</w>": 5325,
  "ಮಂತ್ರ": 5326,
  "ಮಂತ್ರ</w>": 5327,
  "ಮಂತ್ರಿ": 5328,
  "ಮಂದ": 5329,
  "ಮಂದರ": 5330,
  "ಮಂದಿ</w>": 5331,
  "ಮಂದಿರ": 5332,
  "ಮಕ್ಕ": 5333,
  "ಮಕ್ಕಳ": 5334,
  "ಮಕ್ಕಳ</w>": 5335,
  "ಮಕ್ಕಳನ್ನು</w>": 5336,
  "ಮಕ್ಕಳಿ": 5337,
  "ಮಕ್ಕಳಿಗೆ</w>": 5338,
  "ಮಕ್ಕಳು,</w>": 5339,
  "ಮಕ್ಕಳು.</w>": 5340,
  "ಮಕ್ಕಳು</w>": 5341,
  "ಮಕ್ಕಳೂ</w>": 5342,
  "ಮಕ್‌": 5343,
  "ಮಗ": 5344,
  "ಮಗ</w>": 5345,
  "ಮಗನ</w>": 5346,
  "ಮಗನನ್ನು</w>": 5347,
  "ಮಗನಾದ</w>": 5348,
  "ಮಗಳ": 5349,
  "ಮಗಳ</w>": 5350,
  "ಮಗಳನ್ನು</w>": 5351,
  "ಮಗಳಿಗೆ</w>": 5352,
  "ಮಗಳು</w>": 5353,
  "ಮಗು": 5354,
  "ಮಗು</w>": 5355,
  "ಮಗುವ": 5356,
  "ಮಗುವಿಗೆ</w>": 5357,
  "ಮಗೆ</w>": 5358,
  "ಮಗ್ಗ": 5359,
  "ಮಜ್": 5360,
  "ಮಟ</w>": 5361,
  "ಮಟ್ಟ": 5362,
  "ಮಟ್ಟಿಗೆ</w>": 5363,
  "ಮಠ": 5364,
  "ಮಠ</w>": 5365,
  "ಮಡ": 5366,
  "ಮಡದಿ</w>": 5367,
  "ಮಡದಿಯ</w>": 5368,
  "ಮಡಿ": 5369,
  "ಮಡಿ</w>": 5370,
  "ಮಡು": 5371,
  "ಮಣ": 5372,
  "ಮಣಿ": 5373,
  "ಮಣಿ</w>": 5374,
  "ಮಣ್ಣ": 5375,
  "ಮಣ್ಣಿನ</w>": 5376,
  "ಮಣ್ಣು</w>": 5377,
  "ಮತ": 5378,
  "ಮತ</w>": 5379,
  "ಮತಿ": 5380,
  "ಮತಿ</w>": 5381,
  "ಮತ್": 5382,
  "ಮತ್ತ": 5383,
  "ಮತ್ತಷ್ಟು</w>": 5384,
  "ಮತ್ತು</w>": 5385,
  "ಮತ್ತೆ": 5386,
  "ಮತ್ತೆ</w>": 5387,
  "ಮತ್ತೊಂದು</w>": 5388,
  "ಮತ್ಸ್ಯಾ": 5389,
  "ಮತ್ಸ್ಯಾವತಾರ</w>": 5390,
  "ಮಥ": 5391,
  "ಮದ": 5392,
  "ಮದ</w>": 5393,
  "ಮದಕರಿ</w>": 5394,
  "ಮದು": 5395,
  "ಮದುನೆ</w>": 5396,
  "ಮದುವ": 5397,
  "ಮದುವೆ</w>": 5398,
  "ಮದುವೆಯಾ": 5399,
  "ಮದ್": 5400,
  "ಮದ್ದ": 5401,
  "ಮದ್ದಾ": 5402,
  "ಮದ್ದಾನೆ</w>": 5403,
  "ಮದ್ರಾ": 5404,
  "ಮಧ": 5405,
  "ಮಧು": 5406,
  "ಮಧ್ಯ": 5407,
  "ಮಧ್ಯಾ": 5408,
  "ಮಧ್ಯಾಹ್": 5409,
  "ಮಧ್ಯಾಹ್ನ</w>": 5410,
  "ಮಧ್ಯೆ</w>": 5411,
  "ಮನ": 5412,
  "ಮನ</w>": 5413,
  "ಮನದ": 5414,
  "ಮನದಲ್ಲಿ</w>": 5415,
  "ಮನದಿ</w>": 5416,
  "ಮನನ್ನು</w>": 5417,
  "ಮನವೆ</w>": 5418,
  "ಮನಸಿ": 5419,
  "ಮನಸ್": 5420,
  "ಮನಸ್ಸನ್ನು</w>": 5421,
  "ಮನಸ್ಸಿ": 5422,
  "ಮನಸ್ಸಿಗೆ</w>": 5423,
  "ಮನಸ್ಸಿನ</w>": 5424,
  "ಮನಸ್ಸಿನಲ್ಲಿ</w>": 5425,
  "ಮನಸ್ಸು</w>": 5426,
  "ಮನಾ": 5427,
  "ಮನು": 5428,
  "ಮನುಜ": 5429,
  "ಮನುಜ</w>": 5430,
  "ಮನುಷ್ಯ": 5431,
  "ಮನುಷ್ಯ</w>": 5432,
  "ಮನುಷ್ಯನ</w>": 5433,
  "ಮನೆ": 5434,
  "ಮನೆ,</w>": 5435,
  "ಮನೆ</w>": 5436,
  "ಮನೆಗೂ</w>": 5437,
  "ಮನೆಗೆ</w>": 5438,
  "ಮನೆತನ": 5439,
  "ಮನೆತನದ</w>": 5440,
  "ಮನೆಯ": 5441,
  "ಮನೆಯ</w>": 5442,
  "ಮನೆಯನ್ನು</w>": 5443,
  "ಮನೆಯಲ್ಲ": 5444,
  "ಮನೆಯಲ್ಲಿ</w>": 5445,
  "ಮನೆಯಲ್ಲಿದ್ದ</w>": 5446,
  "ಮನೆಯಲ್ಲೇ</w>": 5447,
  "ಮನೆಯಾ": 5448,
  "ಮನೆಯಿಂದ</w>": 5449,
  "ಮನೆಯೊಳಗೆ</w>": 5450,
  "ಮನೇ": 5451,
  "ಮನೇಲಿ</w>": 5452,
  "ಮನೋ": 5453,
  "ಮನ್": 5454,
  "ಮನ್ನ": 5455,
  "ಮನ್ಮ": 5456,
  "ಮನ್ಮಥ</w>": 5457,
  "ಮನ್ಮಥನ</w>": 5458,
  "ಮನ್ಯ": 5459,
  "ಮಮ": 5460,
  "ಮಯ": 5461,
  "ಮರ": 5462,
  "ಮರ,</w>": 5463,
  "ಮರ</w>": 5464,
  "ಮರಗಳ</w>": 5465,
  "ಮರಣ": 5466,
  "ಮರಣ</w>": 5467,
  "ಮರದ</w>": 5468,
  "ಮರವನ್ನು</w>": 5469,
  "ಮರಿ": 5470,
  "ಮರಿ</w>": 5471,
  "ಮರು": 5472,
  "ಮರು</w>": 5473,
  "ಮರುಳ": 5474,
  "ಮರುಳು</w>": 5475,
  "ಮರುಳೆ</w>": 5476,
  "ಮರೆ": 5477,
  "ಮರೆ</w>": 5478,
  "ಮರೆತ": 5479,
  "ಮರೆತು</w>": 5480,
  "ಮರೆಯ": 5481,
  "ಮರೆಯದಿರು</w>": 5482,
  "ಮರ್": 5483,
  "ಮಲ": 5484,
  "ಮಲ</w>": 5485,
  "ಮಲಗ": 5486,
  "ಮಲಗಿ": 5487,
  "ಮಲಗಿ</w>": 5488,
  "ಮಲಗಿದ": 5489,
  "ಮಲಗಿದ</w>": 5490,
  "ಮಲಗಿದ್ದ</w>": 5491,
  "ಮಲೆ": 5492,
  "ಮಲ್ಲ": 5493,
  "ಮಲ್ಲಾ": 5494,
  "ಮಲ್ಲಿ": 5495,
  "ಮಲ್ಲಿಗೆ</w>": 5496,
  "ಮಳ": 5497,
  "ಮಳೆ": 5498,
  "ಮಳೆ</w>": 5499,
  "ಮವನ್ನು</w>": 5500,
  "ಮವಾಗಿ</w>": 5501,
  "ಮಸ": 5502,
  "ಮಸ್ತ": 5503,
  "ಮಹ": 5504,
  "ಮಹತಿ</w>": 5505,
  "ಮಹಾ": 5506,
  "ಮಹಾ</w>": 5507,
  "ಮಹಾಕ": 5508,
  "ಮಹಾತ್ಮ": 5509,
  "ಮಹಾರಾಜ": 5510,
  "ಮಹಿ": 5511,
  "ಮಹಿಮ": 5512,
  "ಮಹಿಮೆ</w>": 5513,
  "ಮಹಿಮೆಯನ್ನು</w>": 5514,
  "ಮಾ": 5515,
  "ಮಾ.</w>": 5516,
  "ಮಾ</w>": 5517,
  "ಮಾಂ": 5518,
  "ಮಾಂಗ": 5519,
  "ಮಾಂಚ": 5520,
  "ಮಾಂಸ": 5521,
  "ಮಾಗ": 5522,
  "ಮಾಡ": 5523,
  "ಮಾಡದೆ</w>": 5524,
  "ಮಾಡಬೇಕು.</w>": 5525,
  "ಮಾಡಬೇಕು</w>": 5526,
  "ಮಾಡಬೇಕೆಂದು</w>": 5527,
  "ಮಾಡಬೇಡ": 5528,
  "ಮಾಡಲಿ</w>": 5529,
  "ಮಾಡಲಿಲ್ಲ.</w>": 5530,
  "ಮಾಡಲು</w>": 5531,
  "ಮಾಡಿ": 5532,
  "ಮಾಡಿ,</w>": 5533,
  "ಮಾಡಿ</w>": 5534,
  "ಮಾಡಿಕೊ": 5535,
  "ಮಾಡಿಕೊಂಡ": 5536,
  "ಮಾಡಿಕೊಂಡು,</w>": 5537,
  "ಮಾಡಿಕೊಂಡು</w>": 5538,
  "ಮಾಡಿಕೊಳ್ಳ": 5539,
  "ಮಾಡಿತು.</w>": 5540,
  "ಮಾಡಿದ": 5541,
  "ಮಾಡಿದ.</w>": 5542,
  "ಮಾಡಿದ</w>": 5543,
  "ಮಾಡಿದರು.</w>": 5544,
  "ಮಾಡಿದರೂ</w>": 5545,
  "ಮಾಡಿದರೆ</w>": 5546,
  "ಮಾಡಿದಾಗ</w>": 5547,
  "ಮಾಡಿದೆ.</w>": 5548,
  "ಮಾಡಿದೆ</w>": 5549,
  "ಮಾಡಿದೆವು.</w>": 5550,
  "ಮಾಡಿದ್ದ": 5551,
  "ಮಾಡಿದ್ದ</w>": 5552,
  "ಮಾಡಿದ್ದರು.</w>": 5553,
  "ಮಾಡಿದ್ದಾರೆ.</w>": 5554,
  "ಮಾಡಿದ್ದು</w>": 5555,
  "ಮಾಡಿಸ": 5556,
  "ಮಾಡಿಸಿ,</w>": 5557,
  "ಮಾಡಿಸಿ</w>": 5558,
  "ಮಾಡು": 5559,
  "ಮಾಡು'</w>": 5560,
  "ಮಾಡು</w>": 5561,
  "ಮಾಡುತ್ತ": 5562,
  "ಮಾಡುತ್ತಾ": 5563,
  "ಮಾಡುತ್ತಿದ್ದ": 5564,
  "ಮಾಡುತ್ತಿದ್ದ</w>": 5565,
  "ಮಾಡುತ್ತಿದ್ದರು.</w>": 5566,
  "ಮಾಡುತ್ತಿದ್ದೆ.</w>": 5567,
  "ಮಾಡುನ</w>": 5568,
  "ಮಾಡುವ": 5569,
  "ಮಾಡುವ</w>": 5570,
  "ಮಾಡುವಾಗ</w>": 5571,
  "ಮಾಡುವುದು</w>": 5572,
  "ಮಾಡೆ</w>": 5573,
  "ಮಾಡೋ": 5574,
  "ಮಾಡ್": 5575,
  "ಮಾಡ್ತೀ": 5576,
  "ಮಾಡ್‌": 5577,
  "ಮಾಣಿ": 5578,
  "ಮಾತ": 5579,
  "ಮಾತ</w>": 5580,
  "ಮಾತನಾ": 5581,
  "ಮಾತನಾಡ": 5582,
  "ಮಾತನಾಡಲು</w>": 5583,
  "ಮಾತನಾಡಿ,</w>": 5584,
  "ಮಾತನಾಡಿ</w>": 5585,
  "ಮಾತನಾಡಿಸ": 5586,
  "ಮಾತನ್ನು</w>": 5587,
  "ಮಾತಾ": 5588,
  "ಮಾತಾಗ": 5589,
  "ಮಾತಾಡ": 5590,
  "ಮಾತಾಡಿ</w>": 5591,
  "ಮಾತಾಡ್": 5592,
  "ಮಾತಿ": 5593,
  "ಮಾತಿಗೆ</w>": 5594,
  "ಮಾತಿನ</w>": 5595,
  "ಮಾತಿನಲ್ಲಿ</w>": 5596,
  "ಮಾತಿನಿಂದ</w>": 5597,
  "ಮಾತು": 5598,
  "ಮಾತು,</w>": 5599,
  "ಮಾತು.</w>": 5600,
  "ಮಾತು</w>": 5601,
  "ಮಾತುಗಳನ್ನು</w>": 5602,
  "ಮಾತುಗಳು</w>": 5603,
  "ಮಾತೃ": 5604,
  "ಮಾತೆಯ</w>": 5605,
  "ಮಾತ್ರ": 5606,
  "ಮಾತ್ರ</w>": 5607,
  "ಮಾದ": 5608,
  "ಮಾದೇವಿ</w>": 5609,
  "ಮಾಧ": 5610,
  "ಮಾಧವ</w>": 5611,
  "ಮಾಧ್ಯ": 5612,
  "ಮಾನ": 5613,
  "ಮಾನ</w>": 5614,
  "ಮಾನನ": 5615,
  "ಮಾನರ</w>": 5616,
  "ಮಾನರು</w>": 5617,
  "ಮಾನವ</w>": 5618,
  "ಮಾನವೀ": 5619,
  "ಮಾನಿ": 5620,
  "ಮಾಮೂ": 5621,
  "ಮಾಯ": 5622,
  "ಮಾಯಾ": 5623,
  "ಮಾರ": 5624,
  "ಮಾರನೆಯ</w>": 5625,
  "ಮಾರಿ": 5626,
  "ಮಾರಿ</w>": 5627,
  "ಮಾರು": 5628,
  "ಮಾರು</w>": 5629,
  "ಮಾರ್": 5630,
  "ಮಾರ್ಗ": 5631,
  "ಮಾರ್ಗ</w>": 5632,
  "ಮಾರ್ಗದರ್ಶ": 5633,
  "ಮಾರ್ಗದರ್ಶನ</w>": 5634,
  "ಮಾರ್ಗದಲ್ಲಿ</w>": 5635,
  "ಮಾರ್ಗವನ್ನು</w>": 5636,
  "ಮಾಲ": 5637,
  "ಮಾಲಿಂಗ": 5638,
  "ಮಾಲಿಂಗು</w>": 5639,
  "ಮಾಲೀ": 5640,
  "ಮಾಲೆ</w>": 5641,
  "ಮಾಳ್": 5642,
  "ಮಾವ": 5643,
  "ಮಾವ</w>": 5644,
  "ಮಾವನ": 5645,
  "ಮಾವನ</w>": 5646,
  "ಮಾವನವರ</w>": 5647,
  "ಮಾವನವರು</w>": 5648,
  "ಮಾಸ": 5649,
  "ಮಾಸ</w>": 5650,
  "ಮಾಸಾ": 5651,
  "ಮಾಸಾಳ": 5652,
  "ಮಾಸಾಳಮ್ಮ</w>": 5653,
  "ಮಾಸ್ತಿ</w>": 5654,
  "ಮಾಹಿ": 5655,
  "ಮಿ": 5656,
  "ಮಿ</w>": 5657,
  "ಮಿಂಚ": 5658,
  "ಮಿಕ</w>": 5659,
  "ಮಿಗಿ": 5660,
  "ಮಿಗೆ</w>": 5661,
  "ಮಿತ": 5662,
  "ಮಿತ</w>": 5663,
  "ಮಿತ್ರ": 5664,
  "ಮಿತ್ರ</w>": 5665,
  "ಮಿತ್ರರ": 5666,
  "ಮಿತ್ರರ</w>": 5667,
  "ಮಿತ್ರರಾದ</w>": 5668,
  "ಮಿತ್ರರು</w>": 5669,
  "ಮಿತ್ರರೊಂದಿಗೆ</w>": 5670,
  "ಮಿಯ": 5671,
  "ಮಿಯ</w>": 5672,
  "ಮೀ": 5673,
  "ಮೀನು": 5674,
  "ಮೀನು</w>": 5675,
  "ಮೀರಿ</w>": 5676,
  "ಮೀಸ": 5677,
  "ಮೀಸಲ": 5678,
  "ಮು": 5679,
  "ಮು</w>": 5680,
  "ಮುಂ": 5681,
  "ಮುಂಗ": 5682,
  "ಮುಂಚ": 5683,
  "ಮುಂಚೆ</w>": 5684,
  "ಮುಂಜ": 5685,
  "ಮುಂಜಿ</w>": 5686,
  "ಮುಂಡ": 5687,
  "ಮುಂಡಿ": 5688,
  "ಮುಂಡಿಗೆ": 5689,
  "ಮುಂಡಿಗೆ</w>": 5690,
  "ಮುಂಡಿಗೆಗಳು</w>": 5691,
  "ಮುಂಡಿಗೆಯ</w>": 5692,
  "ಮುಂಡೇ": 5693,
  "ಮುಂತ": 5694,
  "ಮುಂತಾದ": 5695,
  "ಮುಂತಾದ</w>": 5696,
  "ಮುಂದ": 5697,
  "ಮುಂದಕ್ಕೆ</w>": 5698,
  "ಮುಂದಾ": 5699,
  "ಮುಂದಿ": 5700,
  "ಮುಂದಿ</w>": 5701,
  "ಮುಂದಿಟ್ಟ": 5702,
  "ಮುಂದಿನ</w>": 5703,
  "ಮುಂದು</w>": 5704,
  "ಮುಂದುವ": 5705,
  "ಮುಂದೆ</w>": 5706,
  "ಮುಂದೇನು</w>": 5707,
  "ಮುಂದೊ</w>": 5708,
  "ಮುಕು": 5709,
  "ಮುಕ್": 5710,
  "ಮುಕ್ಕ": 5711,
  "ಮುಕ್ತ</w>": 5712,
  "ಮುಕ್ತಿ</w>": 5713,
  "ಮುಖ": 5714,
  "ಮುಖ</w>": 5715,
  "ಮುಖಂಡ": 5716,
  "ಮುಖಕ್ಕೆ</w>": 5717,
  "ಮುಖಾರಿ</w>": 5718,
  "ಮುಖಿ</w>": 5719,
  "ಮುಖ್ಯ": 5720,
  "ಮುಖ್ಯ</w>": 5721,
  "ಮುಖ್ಯವಾಗಿ</w>": 5722,
  "ಮುಗ": 5723,
  "ಮುಗಿ": 5724,
  "ಮುಗಿದ": 5725,
  "ಮುಗಿದ</w>": 5726,
  "ಮುಗಿದು,</w>": 5727,
  "ಮುಗಿಯ": 5728,
  "ಮುಗಿಯಿತು.</w>": 5729,
  "ಮುಗಿಸ": 5730,
  "ಮುಗಿಸಿ</w>": 5731,
  "ಮುಚ್ಚ": 5732,
  "ಮುಚ್ಚಿ</w>": 5733,
  "ಮುಟ್ಟ": 5734,
  "ಮುಟ್ಟಿ</w>": 5735,
  "ಮುತ್ತ": 5736,
  "ಮುತ್ತ</w>": 5737,
  "ಮುತ್ತು</w>": 5738,
  "ಮುತ್ತೈ": 5739,
  "ಮುದ": 5740,
  "ಮುದಿ": 5741,
  "ಮುದಿಮಲ್ಲ": 5742,
  "ಮುದು": 5743,
  "ಮುದ್": 5744,
  "ಮುದ್ದ": 5745,
  "ಮುದ್ದು</w>": 5746,
  "ಮುದ್ರ": 5747,
  "ಮುದ್ರಣ</w>": 5748,
  "ಮುನಿ": 5749,
  "ಮುನಿ</w>": 5750,
  "ಮುನಿಯ": 5751,
  "ಮುನಿಯ</w>": 5752,
  "ಮುನ್ನ": 5753,
  "ಮುನ್ನ</w>": 5754,
  "ಮುನ್ನು": 5755,
  "ಮುಪ್ಪ": 5756,
  "ಮುರ": 5757,
  "ಮುರಿದ": 5758,
  "ಮುರಿದ</w>": 5759,
  "ಮುರಿದು</w>": 5760,
  "ಮುರು": 5761,
  "ಮುಳು": 5762,
  "ಮುಳುಗ": 5763,
  "ಮುಳುಗಿ</w>": 5764,
  "ಮುಸು": 5765,
  "ಮುಹೂ": 5766,
  "ಮೂ": 5767,
  "ಮೂಗ": 5768,
  "ಮೂಗಿನ</w>": 5769,
  "ಮೂಗು": 5770,
  "ಮೂಗು,</w>": 5771,
  "ಮೂಡ": 5772,
  "ಮೂಡಿ</w>": 5773,
  "ಮೂಡಿಸ": 5774,
  "ಮೂತ್ರ": 5775,
  "ಮೂತ್ರ</w>": 5776,
  "ಮೂರ": 5777,
  "ಮೂರನೆಯ</w>": 5778,
  "ಮೂರು": 5779,
  "ಮೂರು</w>": 5780,
  "ಮೂರುತಿ</w>": 5781,
  "ಮೂರ್": 5782,
  "ಮೂರ್ತಿ": 5783,
  "ಮೂರ್ತಿ,</w>": 5784,
  "ಮೂರ್ತಿ</w>": 5785,
  "ಮೂರ್ತಿಯ": 5786,
  "ಮೂಲ": 5787,
  "ಮೂಲ</w>": 5788,
  "ಮೂಲಕ</w>": 5789,
  "ಮೂಲಾ": 5790,
  "ಮೂವರು</w>": 5791,
  "ಮೃ": 5792,
  "ಮೃಗ": 5793,
  "ಮೃಗ</w>": 5794,
  "ಮೃತ್ಯ": 5795,
  "ಮೆ": 5796,
  "ಮೆ</w>": 5797,
  "ಮೆಂಟ್‌</w>": 5798,
  "ಮೆಚ್ಚ": 5799,
  "ಮೆಚ್ಚಿ": 5800,
  "ಮೆಚ್ಚಿ</w>": 5801,
  "ಮೆಚ್ಚು": 5802,
  "ಮೆಟ್ಟಿ": 5803,
  "ಮೆಟ್ಟಿಲು</w>": 5804,
  "ಮೆತ್ತ": 5805,
  "ಮೆಯ": 5806,
  "ಮೆರವ": 5807,
  "ಮೆರವಣಿಗೆ</w>": 5808,
  "ಮೆರವಣಿಗೆಯಲ್ಲಿ</w>": 5809,
  "ಮೆರೆ": 5810,
  "ಮೆಲ್ಲ": 5811,
  "ಮೇ": 5812,
  "ಮೇಕೆ</w>": 5813,
  "ಮೇಘ": 5814,
  "ಮೇಲ": 5815,
  "ಮೇಲಣ</w>": 5816,
  "ಮೇಲಿ": 5817,
  "ಮೇಲಿಂದ</w>": 5818,
  "ಮೇಲಿದ್ದ</w>": 5819,
  "ಮೇಲಿನ</w>": 5820,
  "ಮೇಲು": 5821,
  "ಮೇಲು</w>": 5822,
  "ಮೇಲೂ</w>": 5823,
  "ಮೇಲೆ": 5824,
  "ಮೇಲೆ,</w>": 5825,
  "ಮೇಲೆ</w>": 5826,
  "ಮೇಲೇ": 5827,
  "ಮೇಲ್": 5828,
  "ಮೇಳ": 5829,
  "ಮೇಸ್ಟ": 5830,
  "ಮೈ": 5831,
  "ಮೈ</w>": 5832,
  "ಮೈಗೆ</w>": 5833,
  "ಮೈದು": 5834,
  "ಮೈದುನ</w>": 5835,
  "ಮೈಯ": 5836,
  "ಮೈಲಿ</w>": 5837,
  "ಮೈಸೂ": 5838,
  "ಮೈಸೂರಿಗೆ</w>": 5839,
  "ಮೈಸೂರಿನ</w>": 5840,
  "ಮೈಸೂರಿನಲ್ಲಿ</w>": 5841,
  "ಮೈಸೂರು</w>": 5842,
  "ಮೊ": 5843,
  "ಮೊಗ": 5844,
  "ಮೊದ": 5845,
  "ಮೊದಲ": 5846,
  "ಮೊದಲ</w>": 5847,
  "ಮೊದಲಾದ": 5848,
  "ಮೊದಲಾದ</w>": 5849,
  "ಮೊದಲಿ": 5850,
  "ಮೊದಲು</w>": 5851,
  "ಮೊದಲೇ</w>": 5852,
  "ಮೊಮ್ಮ": 5853,
  "ಮೊಮ್ಮಗ": 5854,
  "ಮೊರೆ</w>": 5855,
  "ಮೊರೆಯ": 5856,
  "ಮೊರೆಯಿ": 5857,
  "ಮೊಳ": 5858,
  "ಮೊಸ": 5859,
  "ಮೊಸಳೆ</w>": 5860,
  "ಮೋ": 5861,
  "ಮೋರೆ</w>": 5862,
  "ಮೋಸ": 5863,
  "ಮೋಸ</w>": 5864,
  "ಮೋಹ": 5865,
  "ಮೋಹನ</w>": 5866,
  "ಮೋಹಿ": 5867,
  "ಮೌ": 5868,
  "ಮೌನ": 5869,
  "ಮೌನ</w>": 5870,
  "ಮ್": 5871,
  "ಮ್ಮ": 5872,
  "ಮ್ಮ</w>": 5873,
  "ಮ್ಮಣ್ಣ": 5874,
  "ಮ್ಮನ</w>": 5875,
  "ಮ್ಮಿ</w>": 5876,
  "ಮ್ಮು</w>": 5877,
  "ಮ್ಮೆ</w>": 5878,
  "ಮ್ಯ": 5879,
  "ಮ್ಯಾ": 5880,
  "ಮ್ಯಾಲೆ</w>": 5881,
  "ಮ್ಳ</w>": 5882,
  "ಮ೦ಗಳ</w>": 5883,
  "ಯ": 5884,
  "ಯ</w>": 5885,
  "ಯಂ": 5886,
  "ಯಕ್ತಿ": 5887,
  "ಯಜ": 5888,
  "ಯಜ</w>": 5889,
  "ಯಜನ": 5890,
  "ಯಜನಾ": 5891,
  "ಯಜಮಾನ": 5892,
  "ಯಜಮಾನರ</w>": 5893,
  "ಯಜಮಾನರನ್ನು</w>": 5894,
  "ಯಜಮಾನರಿಗೆ</w>": 5895,
  "ಯಜಮಾನರು,</w>": 5896,
  "ಯಜಮಾನರು.</w>": 5897,
  "ಯಜಮಾನರು</w>": 5898,
  "ಯತ್": 5899,
  "ಯದ</w>": 5900,
  "ಯನ</w>": 5901,
  "ಯನ್ನು</w>": 5902,
  "ಯಮ": 5903,
  "ಯಮನ</w>": 5904,
  "ಯಲ್ಲ": 5905,
  "ಯಲ್ಲಿ</w>": 5906,
  "ಯಶಸ್": 5907,
  "ಯಶಸ್ವಿಯ": 5908,
  "ಯಶೋ": 5909,
  "ಯಶೋದೆ</w>": 5910,
  "ಯಾ": 5911,
  "ಯಾ,</w>": 5912,
  "ಯಾ</w>": 5913,
  "ಯಾ?</w>": 5914,
  "ಯಾಂತ್ರಿ": 5915,
  "ಯಾಕೆ</w>": 5916,
  "ಯಾಕೋ</w>": 5917,
  "ಯಾಗ": 5918,
  "ಯಾಗಿ</w>": 5919,
  "ಯಾತನ": 5920,
  "ಯಾತ್ರ": 5921,
  "ಯಾದ": 5922,
  "ಯಾದ</w>": 5923,
  "ಯಾದರೂ</w>": 5924,
  "ಯಾದವ": 5925,
  "ಯಾದಿಕೇಶ": 5926,
  "ಯಾನ</w>": 5927,
  "ಯಾಯಿತು.</w>": 5928,
  "ಯಾರ": 5929,
  "ಯಾರ</w>": 5930,
  "ಯಾರನ್ನು</w>": 5931,
  "ಯಾರನ್ನೂ</w>": 5932,
  "ಯಾರಾದರೂ</w>": 5933,
  "ಯಾರಿಗೂ</w>": 5934,
  "ಯಾರಿಗೆ</w>": 5935,
  "ಯಾರು</w>": 5936,
  "ಯಾರು?</w>": 5937,
  "ಯಾರೂ</w>": 5938,
  "ಯಾರೊ</w>": 5939,
  "ಯಾರೋ</w>": 5940,
  "ಯಾವ": 5941,
  "ಯಾವ</w>": 5942,
  "ಯಾವಾಗ": 5943,
  "ಯಾವಾಗ</w>": 5944,
  "ಯಾವಾಗಲೂ</w>": 5945,
  "ಯಾವು": 5946,
  "ಯಾವುದ": 5947,
  "ಯಾವುದು</w>": 5948,
  "ಯಾವುದೂ</w>": 5949,
  "ಯಾವುದೇ</w>": 5950,
  "ಯಾವುದೋ</w>": 5951,
  "ಯಾಸ": 5952,
  "ಯಿ": 5953,
  "ಯಿ</w>": 5954,
  "ಯಿಂದ</w>": 5955,
  "ಯಿತ": 5956,
  "ಯಿತು,</w>": 5957,
  "ಯಿತು.</w>": 5958,
  "ಯಿತು</w>": 5959,
  "ಯಿಸ": 5960,
  "ಯು": 5961,
  "ಯು</w>": 5962,
  "ಯುಗ": 5963,
  "ಯುಗದ</w>": 5964,
  "ಯುದ್ಧ": 5965,
  "ಯುದ್ಧ</w>": 5966,
  "ಯುವ": 5967,
  "ಯುವ</w>": 5968,
  "ಯೆ</w>": 5969,
  "ಯೇ": 5970,
  "ಯೋ": 5971,
  "ಯೋ</w>": 5972,
  "ಯೋಗ": 5973,
  "ಯೋಗ</w>": 5974,
  "ಯೋಗಕ್ಷೇ": 5975,
  "ಯೋಗಕ್ಷೇಮ</w>": 5976,
  "ಯೋಗಿ</w>": 5977,
  "ಯೋಗ್ಯ": 5978,
  "ಯೋಚ": 5979,
  "ಯೋಚನೆ</w>": 5980,
  "ಯೋಚಿಸ": 5981,
  "ಯೋಜ": 5982,
  "ಯೋಜನ": 5983,
  "ಯೋಜನೆ</w>": 5984,
  "ಯೌ": 5985,
  "ಯೌವನ": 5986,
  "ಯ್": 5987,
  "ಯ್ತು": 5988,
  "ಯ್ತು.</w>": 5989,
  "ಯ್ತು</w>": 5990,
  "ಯ್ದು</w>": 5991,
  "ಯ್ಯ": 5992,
  "ಯ್ಯ,</w>": 5993,
  "ಯ್ಯ</w>": 5994,
  "ಯ್ಯನ</w>": 5995,
  "ಯ್ಯನನ": 5996,
  "ಯ್ಯನವರ</w>": 5997,
  "ಯ್ಯನವರು</w>": 5998,
  "ಯ್ಯಾ": 5999,
  "ಯ್ಯೋ</w>": 6000,
  "ಯ್‌": 6001,
  "ಯ್‌</w>": 6002,
  "ರ": 6003,
  "ರ,</w>": 6004,
  "ರ...</w>": 6005,
  "ರ</w>": 6006,
  "ರಂ": 6007,
  "ರಂಗ": 6008,
  "ರಂಗ</w>": 6009,
  "ರಂಗದ</w>": 6010,
  "ರಂಗದಲ್ಲಿ</w>": 6011,
  "ರಂಗನಾಥ": 6012,
  "ರಂಗಯ್ಯ</w>": 6013,
  "ರಂಜ": 6014,
  "ರಂತ": 6015,
  "ರಂತೆ,</w>": 6016,
  "ರಂತೆ.</w>": 6017,
  "ರಂತೆ</w>": 6018,
  "ರಂದು</w>": 6019,
  "ರಂಭ": 6020,
  "ರಕ": 6021,
  "ರಕ್": 6022,
  "ರಕ್ಕ": 6023,
  "ರಕ್ಕೆ</w>": 6024,
  "ರಕ್ತ": 6025,
  "ರಕ್ತ</w>": 6026,
  "ರಕ್ಷ": 6027,
  "ರಗ": 6028,
  "ರಘ": 6029,
  "ರಘು": 6030,
  "ರಚ": 6031,
  "ರಚನೆ</w>": 6032,
  "ರಚನೆಯ</w>": 6033,
  "ರಚನೆಯಲ್ಲಿ</w>": 6034,
  "ರಚಿಸ": 6035,
  "ರಜ": 6036,
  "ರಡು</w>": 6037,
  "ರಣ": 6038,
  "ರಣೆ": 6039,
  "ರಣೆ</w>": 6040,
  "ರಣೆಯ</w>": 6041,
  "ರತಿ": 6042,
  "ರತ್": 6043,
  "ರಥ": 6044,
  "ರದ</w>": 6045,
  "ರದಲ್ಲಿ</w>": 6046,
  "ರದಿ</w>": 6047,
  "ರದಿಂದ</w>": 6048,
  "ರನ": 6049,
  "ರನ</w>": 6050,
  "ರನು</w>": 6051,
  "ರನೆ</w>": 6052,
  "ರನ್ನ": 6053,
  "ರನ್ನ</w>": 6054,
  "ರನ್ನು</w>": 6055,
  "ರನ್ನೂ</w>": 6056,
  "ರಭ": 6057,
  "ರಮ": 6058,
  "ರಮಣ": 6059,
  "ರಮಣ</w>": 6060,
  "ರರ</w>": 6061,
  "ರಲಿ</w>": 6062,
  "ರಲು</w>": 6063,
  "ರಲ್ಲ": 6064,
  "ರಲ್ಲ,</w>": 6065,
  "ರಲ್ಲಿ": 6066,
  "ರಲ್ಲಿ</w>": 6067,
  "ರಲ್ಲೂ</w>": 6068,
  "ರಳ": 6069,
  "ರವ": 6070,
  "ರವ</w>": 6071,
  "ರವನ್ನು</w>": 6072,
  "ರವಾಗಿ</w>": 6073,
  "ರವಾದ</w>": 6074,
  "ರವಿ": 6075,
  "ರವಿ</w>": 6076,
  "ರಸ": 6077,
  "ರಸ</w>": 6078,
  "ರಸಿ": 6079,
  "ರಸ್ತ": 6080,
  "ರಹ": 6081,
  "ರಹಸ್ಯ": 6082,
  "ರಹಿತ</w>": 6083,
  "ರಾ": 6084,
  "ರಾ.": 6085,
  "ರಾ</w>": 6086,
  "ರಾ?</w>": 6087,
  "ರಾಂ</w>": 6088,
  "ರಾಕ್ಷ": 6089,
  "ರಾಕ್ಷಸ": 6090,
  "ರಾಕ್ಷಸ</w>": 6091,
  "ರಾಗ": 6092,
  "ರಾಗ</w>": 6093,
  "ರಾಗ?</w>": 6094,
  "ರಾಗಿ,</w>": 6095,
  "ರಾಗಿ</w>": 6096,
  "ರಾಗಿದ್ದ": 6097,
  "ರಾಗಿದ್ದ</w>": 6098,
  "ರಾಗಿದ್ದರು.</w>": 6099,
  "ರಾಘ": 6100,
  "ರಾಘವ</w>": 6101,
  "ರಾಘವೇಂದ್ರ</w>": 6102,
  "ರಾಜ": 6103,
  "ರಾಜ</w>": 6104,
  "ರಾಜಕೀ": 6105,
  "ರಾಜಕೀಯ": 6106,
  "ರಾಜಕೀಯ</w>": 6107,
  "ರಾಜನ</w>": 6108,
  "ರಾಜಾ": 6109,
  "ರಾಜು</w>": 6110,
  "ರಾಜ್ಯ": 6111,
  "ರಾಜ್ಯ</w>": 6112,
  "ರಾಜ್ಯದ</w>": 6113,
  "ರಾಜ್ಯದಲ್ಲಿ</w>": 6114,
  "ರಾಜ್ಯೋತ್": 6115,
  "ರಾಜ್‌": 6116,
  "ರಾಜ್‌</w>": 6117,
  "ರಾಟ": 6118,
  "ರಾಡ": 6119,
  "ರಾತ್": 6120,
  "ರಾತ್ರಿ": 6121,
  "ರಾತ್ರಿ</w>": 6122,
  "ರಾತ್ರಿಯ": 6123,
  "ರಾತ್ರಿಯ</w>": 6124,
  "ರಾದ": 6125,
  "ರಾದ</w>": 6126,
  "ರಾದರು.</w>": 6127,
  "ರಾದರೂ</w>": 6128,
  "ರಾದಿ</w>": 6129,
  "ರಾಧ": 6130,
  "ರಾಮ": 6131,
  "ರಾಮ</w>": 6132,
  "ರಾಮಚಂದ್ರ": 6133,
  "ರಾಮಣ್ಣ</w>": 6134,
  "ರಾಮನ</w>": 6135,
  "ರಾಮಾ": 6136,
  "ರಾಮಾನು": 6137,
  "ರಾಮಾಯ": 6138,
  "ರಾಮಾಯಣ</w>": 6139,
  "ರಾಮಾವತಾರ</w>": 6140,
  "ರಾಮು</w>": 6141,
  "ರಾಯ": 6142,
  "ರಾಯ</w>": 6143,
  "ರಾಯನ</w>": 6144,
  "ರಾಯರ</w>": 6145,
  "ರಾಯರನ್ನು</w>": 6146,
  "ರಾಯರಿಗೆ</w>": 6147,
  "ರಾಯರು,</w>": 6148,
  "ರಾಯರು.</w>": 6149,
  "ರಾಯರು</w>": 6150,
  "ರಾರು</w>": 6151,
  "ರಾಳಿ</w>": 6152,
  "ರಾವ": 6153,
  "ರಾವಣ": 6154,
  "ರಾವಣ</w>": 6155,
  "ರಾವಣನ</w>": 6156,
  "ರಾವ್‌</w>": 6157,
  "ರಾಶಿ": 6158,
  "ರಾಶಿ</w>": 6159,
  "ರಾಷ್ಟ್ರ": 6160,
  "ರಿ": 6161,
  "ರಿ'</w>": 6162,
  "ರಿ,</w>": 6163,
  "ರಿ.</w>": 6164,
  "ರಿ</w>": 6165,
  "ರಿಂದ": 6166,
  "ರಿಂದ,</w>": 6167,
  "ರಿಂದ</w>": 6168,
  "ರಿಂದಲೇ</w>": 6169,
  "ರಿಂದಾಗಿ</w>": 6170,
  "ರಿಂದೆ</w>": 6171,
  "ರಿಕೆ</w>": 6172,
  "ರಿಕೆಯ": 6173,
  "ರಿಗ": 6174,
  "ರಿಗಾ": 6175,
  "ರಿಗಿ": 6176,
  "ರಿಗಿದ್ದ</w>": 6177,
  "ರಿಗೂ</w>": 6178,
  "ರಿಗೆ": 6179,
  "ರಿಗೆ,</w>": 6180,
  "ರಿಗೆ.</w>": 6181,
  "ರಿಗೆ</w>": 6182,
  "ರಿಗೇ</w>": 6183,
  "ರಿತ": 6184,
  "ರಿತ</w>": 6185,
  "ರಿತು.</w>": 6186,
  "ರಿತು</w>": 6187,
  "ರಿದ": 6188,
  "ರಿದ.</w>": 6189,
  "ರಿದ</w>": 6190,
  "ರಿದು": 6191,
  "ರಿದು</w>": 6192,
  "ರಿದೆ</w>": 6193,
  "ರಿನ</w>": 6194,
  "ರಿನಲ್ಲ": 6195,
  "ರಿನಲ್ಲಿ</w>": 6196,
  "ರಿನಿಂದ</w>": 6197,
  "ರಿಯ": 6198,
  "ರಿಯ</w>": 6199,
  "ರಿಯದ</w>": 6200,
  "ರಿಯದೆ</w>": 6201,
  "ರಿಯನ್ನು</w>": 6202,
  "ರಿಯಲ್ಲಿ</w>": 6203,
  "ರಿಯಾಗ": 6204,
  "ರಿಯಾಗಿ</w>": 6205,
  "ರಿಯೆ</w>": 6206,
  "ರಿಲ್ಲ</w>": 6207,
  "ರಿಷ್ಟ": 6208,
  "ರಿಸ": 6209,
  "ರಿಸಲು</w>": 6210,
  "ರಿಸಿ": 6211,
  "ರಿಸಿ,</w>": 6212,
  "ರಿಸಿ</w>": 6213,
  "ರಿಸಿಕೊಂಡ": 6214,
  "ರಿಸಿಕೊಂಡು</w>": 6215,
  "ರಿಸಿಕೊಳ್ಳ": 6216,
  "ರಿಸಿದ": 6217,
  "ರಿಸಿದ.</w>": 6218,
  "ರಿಸಿದ</w>": 6219,
  "ರಿಸಿದರು.</w>": 6220,
  "ರಿಸಿದೆ</w>": 6221,
  "ರಿಸು</w>": 6222,
  "ರಿಸುವ": 6223,
  "ರಿಸುವ</w>": 6224,
  "ರಿ೦ದ": 6225,
  "ರಿ೦ದ</w>": 6226,
  "ರೀ": 6227,
  "ರೀ</w>": 6228,
  "ರೀಕ್ಷ": 6229,
  "ರೀತಿ,</w>": 6230,
  "ರೀತಿ</w>": 6231,
  "ರೀತಿಯ": 6232,
  "ರೀತಿಯ</w>": 6233,
  "ರೀತಿಯಲ್ಲಿ</w>": 6234,
  "ರು": 6235,
  "ರು'</w>": 6236,
  "ರು)</w>": 6237,
  "ರು,</w>": 6238,
  "ರು-": 6239,
  "ರು--": 6240,
  "ರು--</w>": 6241,
  "ರು-</w>": 6242,
  "ರು.": 6243,
  "ರು...</w>": 6244,
  "ರು.</w>": 6245,
  "ರು;</w>": 6246,
  "ರು</w>": 6247,
  "ರು?</w>": 6248,
  "ರುಂಪ": 6249,
  "ರುಂಪೆ</w>": 6250,
  "ರುಂಪೆತಾಳ</w>": 6251,
  "ರುಕ್": 6252,
  "ರುಕ್ಮಿ": 6253,
  "ರುಗ": 6254,
  "ರುಗಳ</w>": 6255,
  "ರುಗಳು</w>": 6256,
  "ರುಚ": 6257,
  "ರುಚಿ": 6258,
  "ರುಚಿ</w>": 6259,
  "ರುತ್ತ": 6260,
  "ರುತ್ತಿದ್ದ</w>": 6261,
  "ರುದ್ರ": 6262,
  "ರುವ": 6263,
  "ರುವ</w>": 6264,
  "ರುವುದು</w>": 6265,
  "ರುಷ": 6266,
  "ರುಷ</w>": 6267,
  "ರೂ": 6268,
  "ರೂ,</w>": 6269,
  "ರೂ</w>": 6270,
  "ರೂಢ": 6271,
  "ರೂಢಿ</w>": 6272,
  "ರೂಪ": 6273,
  "ರೂಪ</w>": 6274,
  "ರೂಪಕ": 6275,
  "ರೂಪಕ</w>": 6276,
  "ರೂಪಕದಲ್ಲಿ</w>": 6277,
  "ರೂಪದ</w>": 6278,
  "ರೂಪದಲ್ಲಿ</w>": 6279,
  "ರೂಪಾ": 6280,
  "ರೂಪಾಯಿ": 6281,
  "ರೂಪಾಯಿ</w>": 6282,
  "ರೂಮಿ": 6283,
  "ರೂರು</w>": 6284,
  "ರೆ": 6285,
  "ರೆ'</w>": 6286,
  "ರೆ,</w>": 6287,
  "ರೆ-</w>": 6288,
  "ರೆ.</w>": 6289,
  "ರೆ</w>": 6290,
  "ರೆ?</w>": 6291,
  "ರೆಂದು</w>": 6292,
  "ರೆಂಬ</w>": 6293,
  "ರೆಕಾರ್": 6294,
  "ರೆಕ್ಕೆ</w>": 6295,
  "ರೆಗೂ</w>": 6296,
  "ರೆಗೆ</w>": 6297,
  "ರೆಡ್ಡಿ</w>": 6298,
  "ರೆಡ್ಡಿಯ": 6299,
  "ರೆದು</w>": 6300,
  "ರೆನಗೆ</w>": 6301,
  "ರೆಯ": 6302,
  "ರೆಯ</w>": 6303,
  "ರೆಯಲು</w>": 6304,
  "ರೆಯಲ್ಲಿ</w>": 6305,
  "ರೆಯಾಗಿ</w>": 6306,
  "ರೆಯೇ</w>": 6307,
  "ರೆಲ್ಲ": 6308,
  "ರೆಲ್ಲ</w>": 6309,
  "ರೇ": 6310,
  "ರೇ,</w>": 6311,
  "ರೇ</w>": 6312,
  "ರೇನು</w>": 6313,
  "ರೇನೋ</w>": 6314,
  "ರೇಷ": 6315,
  "ರೈ": 6316,
  "ರೊ": 6317,
  "ರೊ</w>": 6318,
  "ರೊಂದಿಗೆ</w>": 6319,
  "ರೊಂದು</w>": 6320,
  "ರೊಡನೆ</w>": 6321,
  "ರೊಳಗೆ</w>": 6322,
  "ರೊಳು</w>": 6323,
  "ರೋ": 6324,
  "ರೋ,</w>": 6325,
  "ರೋ</w>": 6326,
  "ರೋಗ": 6327,
  "ರೋಗ</w>": 6328,
  "ರೌ": 6329,
  "ರ್": 6330,
  "ರ್</w>": 6331,
  "ರ್ಕ</w>": 6332,
  "ರ್ಗ": 6333,
  "ರ್ಗೆ</w>": 6334,
  "ರ್ಚ": 6335,
  "ರ್ಜ": 6336,
  "ರ್ಣ": 6337,
  "ರ್ತ": 6338,
  "ರ್ಥ": 6339,
  "ರ್ಥ</w>": 6340,
  "ರ್ಥಿ": 6341,
  "ರ್ಥಿಕ</w>": 6342,
  "ರ್ದ</w>": 6343,
  "ರ್ಧ": 6344,
  "ರ್ನ</w>": 6345,
  "ರ್ಪ": 6346,
  "ರ್ಪ</w>": 6347,
  "ರ್ಭ": 6348,
  "ರ್ಮ": 6349,
  "ರ್ಮ</w>": 6350,
  "ರ್ಮಾ": 6351,
  "ರ್ಯ": 6352,
  "ರ್ಯ</w>": 6353,
  "ರ್ಯದ</w>": 6354,
  "ರ್ಯಾ": 6355,
  "ರ್ರಿ": 6356,
  "ರ್ರೀ": 6357,
  "ರ್ವ": 6358,
  "ರ್ವ</w>": 6359,
  "ರ್ಶ": 6360,
  "ರ್ಷ": 6361,
  "ರ್‌": 6362,
  "ರ್‌,</w>": 6363,
  "ರ್‌.</w>": 6364,
  "ರ್‌</w>": 6365,
  "ರ”</w>": 6366,
  "ಲ": 6367,
  "ಲ,</w>": 6368,
  "ಲ.</w>": 6369,
  "ಲ</w>": 6370,
  "ಲಂ": 6371,
  "ಲಂಕೆಗೆ</w>": 6372,
  "ಲಕ್ಕ": 6373,
  "ಲಕ್ಷ": 6374,
  "ಲಕ್ಷ</w>": 6375,
  "ಲಕ್ಷ್ಮ": 6376,
  "ಲಕ್ಷ್ಮಣ": 6377,
  "ಲಕ್ಷ್ಮಿ</w>": 6378,
  "ಲಕ್ಷ್ಮಿಯ</w>": 6379,
  "ಲಕ್ಷ್ಮೀ": 6380,
  "ಲಕ್ಷ್ಮೀ</w>": 6381,
  "ಲಗ": 6382,
  "ಲಗ್": 6383,
  "ಲದ</w>": 6384,
  "ಲನ</w>": 6385,
  "ಲನೆ</w>": 6386,
  "ಲನ್ನು</w>": 6387,
  "ಲಭ": 6388,
  "ಲಯ": 6389,
  "ಲಯ</w>": 6390,
  "ಲಯದ</w>": 6391,
  "ಲಲಿ": 6392,
  "ಲಲ್ಲಿ</w>": 6393,
  "ಲಾ": 6394,
  "ಲಾ</w>": 6395,
  "ಲಾಖ": 6396,
  "ಲಾಗ": 6397,
  "ಲಾಗ</w>": 6398,
  "ಲಾಗದ</w>": 6399,
  "ಲಾಗದೆ,</w>": 6400,
  "ಲಾಗದೆ</w>": 6401,
  "ಲಾಗಲಿಲ್ಲ.</w>": 6402,
  "ಲಾಗಿ</w>": 6403,
  "ಲಾಗಿದೆ.</w>": 6404,
  "ಲಾದ": 6405,
  "ಲಾದ</w>": 6406,
  "ಲಾದರೂ</w>": 6407,
  "ಲಾಯ": 6408,
  "ಲಾಯಿತು.</w>": 6409,
  "ಲಾರ": 6410,
  "ಲಾರಂಭ": 6411,
  "ಲಾರದ</w>": 6412,
  "ಲಾರದೆ</w>": 6413,
  "ಲಾರೆ": 6414,
  "ಲಾವ": 6415,
  "ಲಿ": 6416,
  "ಲಿ'</w>": 6417,
  "ಲಿ,</w>": 6418,
  "ಲಿ...</w>": 6419,
  "ಲಿ.</w>": 6420,
  "ಲಿ</w>": 6421,
  "ಲಿ?</w>": 6422,
  "ಲಿಂಗ": 6423,
  "ಲಿಂಗ</w>": 6424,
  "ಲಿಂದ</w>": 6425,
  "ಲಿಕ್ಕೆ</w>": 6426,
  "ಲಿಗೆ</w>": 6427,
  "ಲಿದ": 6428,
  "ಲಿದು": 6429,
  "ಲಿದು</w>": 6430,
  "ಲಿದುಪ್ಪವಡಿಸ": 6431,
  "ಲಿದುಪ್ಪವಡಿಸಯ್ಯ</w>": 6432,
  "ಲಿದ್ದ</w>": 6433,
  "ಲಿನ</w>": 6434,
  "ಲಿನಲ್ಲಿ</w>": 6435,
  "ಲಿನಿಂದ</w>": 6436,
  "ಲಿನ್": 6437,
  "ಲಿಯ": 6438,
  "ಲಿಯ</w>": 6439,
  "ಲಿಲ್ಲ": 6440,
  "ಲಿಲ್ಲ,</w>": 6441,
  "ಲಿಲ್ಲ...</w>": 6442,
  "ಲಿಲ್ಲ..</w>": 6443,
  "ಲಿಲ್ಲ.</w>": 6444,
  "ಲಿಲ್ಲ</w>": 6445,
  "ಲಿಸ": 6446,
  "ಲಿಸಿ": 6447,
  "ಲಿಸಿ</w>": 6448,
  "ಲೀ": 6449,
  "ಲೀ,</w>": 6450,
  "ಲೀ</w>": 6451,
  "ಲೀಲೆ": 6452,
  "ಲೀಲೆ</w>": 6453,
  "ಲೀಲೆಗಳನ್ನು</w>": 6454,
  "ಲೀಲೆಗಳು</w>": 6455,
  "ಲೀಲೆಯ": 6456,
  "ಲು": 6457,
  "ಲು,</w>": 6458,
  "ಲು-": 6459,
  "ಲು.</w>": 6460,
  "ಲು</w>": 6461,
  "ಲುಗ": 6462,
  "ಲುವ": 6463,
  "ಲುವ</w>": 6464,
  "ಲೂ": 6465,
  "ಲೂ</w>": 6466,
  "ಲೆ": 6467,
  "ಲೆ,</w>": 6468,
  "ಲೆ</w>": 6469,
  "ಲೆಂದು</w>": 6470,
  "ಲೆಕ್ಕ": 6471,
  "ಲೆಗೆ</w>": 6472,
  "ಲೆಯ": 6473,
  "ಲೆಯ</w>": 6474,
  "ಲೆಯಲ್ಲಿ</w>": 6475,
  "ಲೆಲ್ಲ</w>": 6476,
  "ಲೇ": 6477,
  "ಲೇ,</w>": 6478,
  "ಲೇ</w>": 6479,
  "ಲೇಕೆ</w>": 6480,
  "ಲೇಖ": 6481,
  "ಲೇಖನ": 6482,
  "ಲೇಖನ</w>": 6483,
  "ಲೇಬೇಕು.</w>": 6484,
  "ಲೇಸು</w>": 6485,
  "ಲೈ": 6486,
  "ಲೊ": 6487,
  "ಲೊ</w>": 6488,
  "ಲೋ": 6489,
  "ಲೋ</w>": 6490,
  "ಲೋಕ": 6491,
  "ಲೋಕ</w>": 6492,
  "ಲೋಕದ</w>": 6493,
  "ಲೋಕದಲ್ಲಿ</w>": 6494,
  "ಲೋಚ": 6495,
  "ಲೋಚನ</w>": 6496,
  "ಲೋಚನೆ</w>": 6497,
  "ಲೌಕಿ": 6498,
  "ಲ್": 6499,
  "ಲ್ಗೆ</w>": 6500,
  "ಲ್ಪ": 6501,
  "ಲ್ಪ</w>": 6502,
  "ಲ್ಯ": 6503,
  "ಲ್ಯ</w>": 6504,
  "ಲ್ಲ": 6505,
  "ಲ್ಲ'</w>": 6506,
  "ಲ್ಲ,</w>": 6507,
  "ಲ್ಲ...</w>": 6508,
  "ಲ್ಲ.</w>": 6509,
  "ಲ್ಲ</w>": 6510,
  "ಲ್ಲದ</w>": 6511,
  "ಲ್ಲದೆ</w>": 6512,
  "ಲ್ಲಾ": 6513,
  "ಲ್ಲಾ</w>": 6514,
  "ಲ್ಲಿ": 6515,
  "ಲ್ಲಿ,</w>": 6516,
  "ಲ್ಲಿ.</w>": 6517,
  "ಲ್ಲಿ</w>": 6518,
  "ಲ್ಲಿಗೆ</w>": 6519,
  "ಲ್ಲಿದ್ದ</w>": 6520,
  "ಲ್ಲಿನ</w>": 6521,
  "ಲ್ಲಿರುವ</w>": 6522,
  "ಲ್ಲು</w>": 6523,
  "ಲ್ಲೂ</w>": 6524,
  "ಲ್ಲೆ": 6525,
  "ಲ್ಲೆ</w>": 6526,
  "ಲ್ಲೇ</w>": 6527,
  "ಲ್ವಾ": 6528,
  "ಲ್‌": 6529,
  "ಲ್‌</w>": 6530,
  "ಳ": 6531,
  "ಳ,</w>": 6532,
  "ಳ</w>": 6533,
  "ಳಕ್ಕೆ</w>": 6534,
  "ಳದ</w>": 6535,
  "ಳನ</w>": 6536,
  "ಳನು</w>": 6537,
  "ಳನ್ನು</w>": 6538,
  "ಳಯ್ಯ</w>": 6539,
  "ಳಲ್ಲಿ</w>": 6540,
  "ಳವಾಗಿ</w>": 6541,
  "ಳಾ": 6542,
  "ಳಾ</w>": 6543,
  "ಳಿ": 6544,
  "ಳಿ,</w>": 6545,
  "ಳಿ</w>": 6546,
  "ಳಿಗೆ</w>": 6547,
  "ಳಿಗ್ಗೆ</w>": 6548,
  "ಳಿತ": 6549,
  "ಳಿದ": 6550,
  "ಳಿದ</w>": 6551,
  "ಳಿದರು.</w>": 6552,
  "ಳಿದಾ": 6553,
  "ಳಿದು</w>": 6554,
  "ಳಿನ</w>": 6555,
  "ಳಿನಲ್ಲಿ</w>": 6556,
  "ಳಿಯ": 6557,
  "ಳಿಯ</w>": 6558,
  "ಳಿಯನ್ನು</w>": 6559,
  "ಳಿಸ": 6560,
  "ಳಿಸಿ</w>": 6561,
  "ಳು": 6562,
  "ಳು,</w>": 6563,
  "ಳು...</w>": 6564,
  "ಳು.</w>": 6565,
  "ಳು</w>": 6566,
  "ಳುಕ": 6567,
  "ಳುವ</w>": 6568,
  "ಳುಹ": 6569,
  "ಳೆ": 6570,
  "ಳೆ,</w>": 6571,
  "ಳೆ.</w>": 6572,
  "ಳೆ</w>": 6573,
  "ಳೆಗೆ</w>": 6574,
  "ಳೆದ</w>": 6575,
  "ಳೆದು</w>": 6576,
  "ಳೆಯ": 6577,
  "ಳೆಯ</w>": 6578,
  "ಳೇ": 6579,
  "ಳೇ</w>": 6580,
  "ಳ್": 6581,
  "ಳ್ಗೆ</w>": 6582,
  "ಳ್ಳ": 6583,
  "ಳ್ಳ</w>": 6584,
  "ಳ್ಳವನು</w>": 6585,
  "ಳ್ಳಿ": 6586,
  "ಳ್ಳಿ</w>": 6587,
  "ಳ್ಳಿಯ</w>": 6588,
  "ಳ್ಳು": 6589,
  "ಳ್ಳು</w>": 6590,
  "ಳ್ಳೆ": 6591,
  "ಳ್ಳೆ</w>": 6592,
  "ಳ್‌": 6593,
  "ಳ್‌</w>": 6594,
  "ವ": 6595,
  "ವ,</w>": 6596,
  "ವ</w>": 6597,
  "ವಂಚ": 6598,
  "ವಂತ": 6599,
  "ವಂತ</w>": 6600,
  "ವಂತೆ</w>": 6601,
  "ವಂಥ</w>": 6602,
  "ವಂದ": 6603,
  "ವಂದಿತ</w>": 6604,
  "ವಂಶ": 6605,
  "ವಂಶದ</w>": 6606,
  "ವಗೆ</w>": 6607,
  "ವಚ": 6608,
  "ವಚನ": 6609,
  "ವಚನ</w>": 6610,
  "ವಜ": 6611,
  "ವಡ": 6612,
  "ವಡಿ</w>": 6613,
  "ವಡಿಸ": 6614,
  "ವಣ": 6615,
  "ವತಾ": 6616,
  "ವತಾರ": 6617,
  "ವತಾರ)</w>": 6618,
  "ವತಾರ</w>": 6619,
  "ವತಾರಿ</w>": 6620,
  "ವತ್": 6621,
  "ವತ್ತ": 6622,
  "ವತ್ತು</w>": 6623,
  "ವದನೆ</w>": 6624,
  "ವನ": 6625,
  "ವನ-</w>": 6626,
  "ವನ</w>": 6627,
  "ವನಜ": 6628,
  "ವನನ್ನು</w>": 6629,
  "ವನಲ್ಲ</w>": 6630,
  "ವನಾ": 6631,
  "ವನಿ": 6632,
  "ವನಿ</w>": 6633,
  "ವನಿಗೆ</w>": 6634,
  "ವನು": 6635,
  "ವನು.</w>": 6636,
  "ವನು</w>": 6637,
  "ವನೆ": 6638,
  "ವನೆ</w>": 6639,
  "ವನೇ</w>": 6640,
  "ವನ್ನ": 6641,
  "ವನ್ನು</w>": 6642,
  "ವನ್ನೂ</w>": 6643,
  "ವನ್ನೇ</w>": 6644,
  "ವನ್ನೊಳ": 6645,
  "ವಯ": 6646,
  "ವಯಸ್": 6647,
  "ವಯಸ್ಸಿ": 6648,
  "ವಯ್ಯ</w>": 6649,
  "ವರ": 6650,
  "ವರ</w>": 6651,
  "ವರಂತೆ</w>": 6652,
  "ವರದ</w>": 6653,
  "ವರದಾ</w>": 6654,
  "ವರನ್ನು</w>": 6655,
  "ವರಲ್ಲ</w>": 6656,
  "ವರಲ್ಲಿ</w>": 6657,
  "ವರಸೆಯ</w>": 6658,
  "ವರಾ": 6659,
  "ವರಾಯ</w>": 6660,
  "ವರಾಹಾವತಾರ</w>": 6661,
  "ವರಿ": 6662,
  "ವರಿ</w>": 6663,
  "ವರಿಗೆ</w>": 6664,
  "ವರಿಯ": 6665,
  "ವರು": 6666,
  "ವರು,</w>": 6667,
  "ವರು.</w>": 6668,
  "ವರು</w>": 6669,
  "ವರೂ</w>": 6670,
  "ವರೆ": 6671,
  "ವರೆ</w>": 6672,
  "ವರೆಗೂ</w>": 6673,
  "ವರೆಗೆ</w>": 6674,
  "ವರೆಲ್ಲ</w>": 6675,
  "ವರೇ</w>": 6676,
  "ವರೊಂದಿಗೆ</w>": 6677,
  "ವರೊಳು</w>": 6678,
  "ವರ್": 6679,
  "ವರ್ಗ": 6680,
  "ವರ್ಗದ</w>": 6681,
  "ವರ್ಣ": 6682,
  "ವರ್ಣ</w>": 6683,
  "ವರ್ತ": 6684,
  "ವರ್ತನ": 6685,
  "ವರ್ಧ": 6686,
  "ವರ್ಷ": 6687,
  "ವರ್ಷ</w>": 6688,
  "ವರ್ಷಗಳ</w>": 6689,
  "ವರ್ಷದ</w>": 6690,
  "ವಲ": 6691,
  "ವಲ</w>": 6692,
  "ವಲ್ಲ": 6693,
  "ವಲ್ಲ</w>": 6694,
  "ವಲ್ಲಭ": 6695,
  "ವಳ": 6696,
  "ವಳ</w>": 6697,
  "ವಳಿ</w>": 6698,
  "ವಳು</w>": 6699,
  "ವಶ": 6700,
  "ವಷ್ಟು</w>": 6701,
  "ವಸು": 6702,
  "ವಸುಧ": 6703,
  "ವಸುಧೆ</w>": 6704,
  "ವಸ್": 6705,
  "ವಸ್ತ": 6706,
  "ವಸ್ತು": 6707,
  "ವಸ್ತು</w>": 6708,
  "ವಸ್ತುವ": 6709,
  "ವಸ್ತ್ರ": 6710,
  "ವಸ್ತ್ರ</w>": 6711,
  "ವಹ": 6712,
  "ವಾ": 6713,
  "ವಾ</w>": 6714,
  "ವಾಂತಿ</w>": 6715,
  "ವಾಗ": 6716,
  "ವಾಗ</w>": 6717,
  "ವಾಗಲಿಲ್ಲ.</w>": 6718,
  "ವಾಗಿ": 6719,
  "ವಾಗಿ,</w>": 6720,
  "ವಾಗಿ</w>": 6721,
  "ವಾಗಿತ್ತು.</w>": 6722,
  "ವಾಗಿದೆ.</w>": 6723,
  "ವಾಗಿದ್ದ": 6724,
  "ವಾಗಿದ್ದ</w>": 6725,
  "ವಾಗಿದ್ದರು.</w>": 6726,
  "ವಾಗಿಯೇ</w>": 6727,
  "ವಾಗಿರ": 6728,
  "ವಾಗಿರುವ</w>": 6729,
  "ವಾಗುತ್ತ": 6730,
  "ವಾಗುತ್ತದೆ.</w>": 6731,
  "ವಾಗುತ್ತಿತ್ತು.</w>": 6732,
  "ವಾಗುವ</w>": 6733,
  "ವಾಡ": 6734,
  "ವಾಡ</w>": 6735,
  "ವಾಣ": 6736,
  "ವಾಣಿ</w>": 6737,
  "ವಾತಾವರಣ": 6738,
  "ವಾದ": 6739,
  "ವಾದ,</w>": 6740,
  "ವಾದ</w>": 6741,
  "ವಾದದ್ದು</w>": 6742,
  "ವಾದರೂ</w>": 6743,
  "ವಾದರೆ</w>": 6744,
  "ವಾದಾಗ</w>": 6745,
  "ವಾದಿ": 6746,
  "ವಾದಿ</w>": 6747,
  "ವಾದು": 6748,
  "ವಾದ್ಯ": 6749,
  "ವಾದ್ಯ</w>": 6750,
  "ವಾಪ": 6751,
  "ವಾಮನಾ": 6752,
  "ವಾಮನಾವತಾರ</w>": 6753,
  "ವಾಯ": 6754,
  "ವಾಯಿತ": 6755,
  "ವಾಯಿತು.</w>": 6756,
  "ವಾಯಿತು</w>": 6757,
  "ವಾಯು": 6758,
  "ವಾಯು</w>": 6759,
  "ವಾರ": 6760,
  "ವಾರ,</w>": 6761,
  "ವಾರ</w>": 6762,
  "ವಾರಿ": 6763,
  "ವಾರಿಧಿ</w>": 6764,
  "ವಾರು</w>": 6765,
  "ವಾರ್": 6766,
  "ವಾರ್ಡ": 6767,
  "ವಾರ್ಡನ್‌</w>": 6768,
  "ವಾಲ್": 6769,
  "ವಾಲ್ಮೀ": 6770,
  "ವಾವೆ</w>": 6771,
  "ವಾಸ": 6772,
  "ವಾಸ</w>": 6773,
  "ವಾಸದ</w>": 6774,
  "ವಾಸನೆ</w>": 6775,
  "ವಾಸಿ": 6776,
  "ವಾಸಿ</w>": 6777,
  "ವಾಸು": 6778,
  "ವಾಸುದೇವ": 6779,
  "ವಾಸುದೇವ</w>": 6780,
  "ವಾಸ್ತ": 6781,
  "ವಾಹ": 6782,
  "ವಾಹ</w>": 6783,
  "ವಾಹನ": 6784,
  "ವಾಹನ</w>": 6785,
  "ವಿ": 6786,
  "ವಿ,</w>": 6787,
  "ವಿ.": 6788,
  "ವಿ.</w>": 6789,
  "ವಿ</w>": 6790,
  "ವಿಂದ</w>": 6791,
  "ವಿಗೆ</w>": 6792,
  "ವಿಚಾ": 6793,
  "ವಿಚಾರ": 6794,
  "ವಿಚಾರ</w>": 6795,
  "ವಿಚಿತ್ರ</w>": 6796,
  "ವಿಜ": 6797,
  "ವಿಜಯ": 6798,
  "ವಿಜಯ</w>": 6799,
  "ವಿಜಯನಗ": 6800,
  "ವಿಠ": 6801,
  "ವಿತ್ತ": 6802,
  "ವಿತ್ತು.</w>": 6803,
  "ವಿತ್ತು</w>": 6804,
  "ವಿದ": 6805,
  "ವಿದು</w>": 6806,
  "ವಿದೆ.</w>": 6807,
  "ವಿದೆ</w>": 6808,
  "ವಿದ್": 6809,
  "ವಿದ್ದ": 6810,
  "ವಿದ್ದ</w>": 6811,
  "ವಿದ್ಯ": 6812,
  "ವಿದ್ಯಾ": 6813,
  "ವಿದ್ಯಾಭ್ಯಾ": 6814,
  "ವಿದ್ಯಾರ್ಥ": 6815,
  "ವಿದ್ಯಾರ್ಥಿ": 6816,
  "ವಿದ್ಯಾರ್ಥಿ</w>": 6817,
  "ವಿದ್ಯೆ</w>": 6818,
  "ವಿದ್ವಾ": 6819,
  "ವಿದ್ವಾಂಸ": 6820,
  "ವಿದ್ವಾಂಸರು</w>": 6821,
  "ವಿಧ": 6822,
  "ವಿಧ</w>": 6823,
  "ವಿಧಾನ": 6824,
  "ವಿಧಾನ</w>": 6825,
  "ವಿನ": 6826,
  "ವಿನ</w>": 6827,
  "ವಿನಂತ": 6828,
  "ವಿನಾ</w>": 6829,
  "ವಿನು</w>": 6830,
  "ವಿಭೀಷಣ": 6831,
  "ವಿಮ": 6832,
  "ವಿಮರ್ಶ": 6833,
  "ವಿಯ": 6834,
  "ವಿಯ</w>": 6835,
  "ವಿರ": 6836,
  "ವಿರಲಿಲ್ಲ.</w>": 6837,
  "ವಿರಲು</w>": 6838,
  "ವಿರು": 6839,
  "ವಿರೋ": 6840,
  "ವಿಲ್ಲ": 6841,
  "ವಿಲ್ಲ.</w>": 6842,
  "ವಿಲ್ಲ</w>": 6843,
  "ವಿಲ್ಲದ</w>": 6844,
  "ವಿಲ್ಲದೆ</w>": 6845,
  "ವಿವ": 6846,
  "ವಿವರ": 6847,
  "ವಿವರಿಸ": 6848,
  "ವಿವಿಧ</w>": 6849,
  "ವಿವೇ": 6850,
  "ವಿಶಾ": 6851,
  "ವಿಶಾಲ</w>": 6852,
  "ವಿಶಿ": 6853,
  "ವಿಶಿಷ್ಟ": 6854,
  "ವಿಶಿಷ್ಟ</w>": 6855,
  "ವಿಶೇಷ": 6856,
  "ವಿಶೇಷ</w>": 6857,
  "ವಿಶ್": 6858,
  "ವಿಶ್ರಾಂತಿ</w>": 6859,
  "ವಿಶ್ವ": 6860,
  "ವಿಶ್ವಾಸ": 6861,
  "ವಿಷ": 6862,
  "ವಿಷಯ": 6863,
  "ವಿಷಯ</w>": 6864,
  "ವಿಷಯಗಳ</w>": 6865,
  "ವಿಷಯಗಳನ್ನು</w>": 6866,
  "ವಿಷಯದಲ್ಲಿ</w>": 6867,
  "ವಿಷ್ಟು</w>": 6868,
  "ವಿಷ್ಣ": 6869,
  "ವಿಷ್ಣು</w>": 6870,
  "ವಿಷ್ಣುವಿನ</w>": 6871,
  "ವಿಸ": 6872,
  "ವಿಸ್": 6873,
  "ವೀ": 6874,
  "ವೀರ": 6875,
  "ವೀರ</w>": 6876,
  "ವು": 6877,
  "ವು,</w>": 6878,
  "ವು-": 6879,
  "ವು.</w>": 6880,
  "ವು</w>": 6881,
  "ವುಂಟೆ</w>": 6882,
  "ವುದ": 6883,
  "ವುದನ್ನು</w>": 6884,
  "ವುದಿ": 6885,
  "ವುದು</w>": 6886,
  "ವುದೂ</w>": 6887,
  "ವುಳ್ಳ": 6888,
  "ವುಳ್ಳ</w>": 6889,
  "ವುಳ್ಳವನು</w>": 6890,
  "ವೂ</w>": 6891,
  "ವೃ": 6892,
  "ವೃಕ್ಷ": 6893,
  "ವೃತ್ತ": 6894,
  "ವೃತ್ತಿ": 6895,
  "ವೃತ್ತಿ</w>": 6896,
  "ವೃದ್ಧ": 6897,
  "ವೃಷ": 6898,
  "ವೆ": 6899,
  "ವೆ.</w>": 6900,
  "ವೆ</w>": 6901,
  "ವೆ?</w>": 6902,
  "ವೆಂಕ": 6903,
  "ವೆಂಕಟ": 6904,
  "ವೆಂಕಟೇಶ</w>": 6905,
  "ವೆಂದ": 6906,
  "ವೆಂದರೆ</w>": 6907,
  "ವೆಂದು</w>": 6908,
  "ವೆಂಬ": 6909,
  "ವೆಂಬ</w>": 6910,
  "ವೆಂಬಂತೆ</w>": 6911,
  "ವೆತ್ತ": 6912,
  "ವೆನ್ನ": 6913,
  "ವೆಯ</w>": 6914,
  "ವೆರ": 6915,
  "ವೆಲ್ಲ": 6916,
  "ವೆಲ್ಲ</w>": 6917,
  "ವೆ೦": 6918,
  "ವೇ": 6919,
  "ವೇ</w>": 6920,
  "ವೇ?</w>": 6921,
  "ವೇಂದ್ರ": 6922,
  "ವೇಂದ್ರ</w>": 6923,
  "ವೇಗ": 6924,
  "ವೇದ": 6925,
  "ವೇದ</w>": 6926,
  "ವೇದಾ": 6927,
  "ವೇದಿ": 6928,
  "ವೇದ್ಯ": 6929,
  "ವೇನು</w>": 6930,
  "ವೇರಿ</w>": 6931,
  "ವೇಲಾ": 6932,
  "ವೇಳ": 6933,
  "ವೇಳೆ</w>": 6934,
  "ವೇಳೆಗೆ</w>": 6935,
  "ವೇಳೆಯಲ್ಲಿ</w>": 6936,
  "ವೇಶ": 6937,
  "ವೇಶ</w>": 6938,
  "ವೇಷ": 6939,
  "ವೇಷ</w>": 6940,
  "ವೈ": 6941,
  "ವೈಕುಂ": 6942,
  "ವೈಕುಂಠ</w>": 6943,
  "ವೈಚಾರಿ": 6944,
  "ವೈಚಾರಿಕತೆ</w>": 6945,
  "ವೈದ್ಯ": 6946,
  "ವೈಯಕ್ತಿ": 6947,
  "ವೈಯಕ್ತಿಕ</w>": 6948,
  "ವೈರಾಗ": 6949,
  "ವೈರಾಗ್ಯ</w>": 6950,
  "ವೈರಿ": 6951,
  "ವೈರಿ</w>": 6952,
  "ವೈರಿಯ</w>": 6953,
  "ವೈಷ್ಣ": 6954,
  "ವೊ": 6955,
  "ವೊ</w>": 6956,
  "ವೊಂದ": 6957,
  "ವೊಂದನ್ನು</w>": 6958,
  "ವೊಂದು</w>": 6959,
  "ವೋ": 6960,
  "ವೋ,</w>": 6961,
  "ವೋ</w>": 6962,
  "ವ್": 6963,
  "ವ್ಯ": 6964,
  "ವ್ಯಕ್ತ": 6965,
  "ವ್ಯಕ್ತಿ": 6966,
  "ವ್ಯಕ್ತಿ</w>": 6967,
  "ವ್ಯಕ್ತಿತ್ವ": 6968,
  "ವ್ಯರ್ಥ": 6969,
  "ವ್ಯವ": 6970,
  "ವ್ಯವಸ್ಥ": 6971,
  "ವ್ಯವಸ್ಥೆ</w>": 6972,
  "ವ್ಯವಹಾರ</w>": 6973,
  "ವ್ಯಾ": 6974,
  "ವ್ಯಾಖ್ಯಾ": 6975,
  "ವ್ಯಾಸ": 6976,
  "ವ್ರ": 6977,
  "ವ್ರ</w>": 6978,
  "ವ್ರತ": 6979,
  "ವ್ವ": 6980,
  "ವ್ವ</w>": 6981,
  "ವ್ವನ</w>": 6982,
  "ಶ": 6983,
  "ಶ</w>": 6984,
  "ಶಂ": 6985,
  "ಶಂಕ": 6986,
  "ಶಂಕರ": 6987,
  "ಶಂಕರ</w>": 6988,
  "ಶಂಕರಯ್ಯ</w>": 6989,
  "ಶಂಕರಾ": 6990,
  "ಶಂಕರಾಚಾರ್ಯ": 6991,
  "ಶಂಕರಾಭರಣ</w>": 6992,
  "ಶಂಕರ್‌</w>": 6993,
  "ಶಃ</w>": 6994,
  "ಶಕ್": 6995,
  "ಶಕ್ತಿ": 6996,
  "ಶಕ್ತಿ</w>": 6997,
  "ಶಕ್ತಿಯ": 6998,
  "ಶತ": 6999,
  "ಶತಮಾನ": 7000,
  "ಶತಮಾನದ</w>": 7001,
  "ಶತ್": 7002,
  "ಶತ್ರು": 7003,
  "ಶತ್ರು</w>": 7004,
  "ಶನ": 7005,
  "ಶನ</w>": 7006,
  "ಶಬ್": 7007,
  "ಶಬ್ದ": 7008,
  "ಶಬ್ದ</w>": 7009,
  "ಶಯ": 7010,
  "ಶಯ</w>": 7011,
  "ಶಯನ</w>": 7012,
  "ಶರ": 7013,
  "ಶರ</w>": 7014,
  "ಶರಣ": 7015,
  "ಶರಣು</w>": 7016,
  "ಶರಣೆಂಬ": 7017,
  "ಶರಣೆಂಬೆನು</w>": 7018,
  "ಶರೀ": 7019,
  "ಶರೀರ</w>": 7020,
  "ಶರ್ಮ": 7021,
  "ಶವ": 7022,
  "ಶಶಿ": 7023,
  "ಶಸ್": 7024,
  "ಶಾ": 7025,
  "ಶಾ.</w>": 7026,
  "ಶಾಂತ": 7027,
  "ಶಾಂತಿ</w>": 7028,
  "ಶಾಪ": 7029,
  "ಶಾಮ": 7030,
  "ಶಾರ": 7031,
  "ಶಾಲ": 7032,
  "ಶಾಲಾ</w>": 7033,
  "ಶಾಲೆ</w>": 7034,
  "ಶಾಲೆಯ</w>": 7035,
  "ಶಾಲೆಯಲ್ಲಿ</w>": 7036,
  "ಶಾಸ್": 7037,
  "ಶಾಸ್ತ್ರ": 7038,
  "ಶಾಸ್ತ್ರ</w>": 7039,
  "ಶಾಸ್ತ್ರಿ": 7040,
  "ಶಾಸ್ತ್ರಿ</w>": 7041,
  "ಶಾಸ್ತ್ರಿಗಳ</w>": 7042,
  "ಶಾಸ್ತ್ರಿಗಳು</w>": 7043,
  "ಶಿ": 7044,
  "ಶಿ</w>": 7045,
  "ಶಿಕ್ಷ": 7046,
  "ಶಿಕ್ಷಣ</w>": 7047,
  "ಶಿಕ್ಷೆ</w>": 7048,
  "ಶಿಖ": 7049,
  "ಶಿನ": 7050,
  "ಶಿನಮೊ": 7051,
  "ಶಿರ": 7052,
  "ಶಿರ</w>": 7053,
  "ಶಿರವ</w>": 7054,
  "ಶಿಲ್ಪ": 7055,
  "ಶಿವ": 7056,
  "ಶಿವ</w>": 7057,
  "ಶಿವನ": 7058,
  "ಶಿವನ</w>": 7059,
  "ಶಿವಮೊ": 7060,
  "ಶಿವಮೊಗ್ಗ</w>": 7061,
  "ಶಿವಶಿವ</w>": 7062,
  "ಶಿವಶಿವಶಿವ</w>": 7063,
  "ಶಿಶು": 7064,
  "ಶಿಷ್ಟ": 7065,
  "ಶಿಷ್ಯ": 7066,
  "ಶಿಸ": 7067,
  "ಶಿಸ್": 7068,
  "ಶೀ": 7069,
  "ಶೀಲ": 7070,
  "ಶೀಲ</w>": 7071,
  "ಶು": 7072,
  "ಶು</w>": 7073,
  "ಶುಕ್ರ": 7074,
  "ಶುದ್ಧ": 7075,
  "ಶುದ್ಧ</w>": 7076,
  "ಶುಭ": 7077,
  "ಶುಭ</w>": 7078,
  "ಶೂ": 7079,
  "ಶೂರ</w>": 7080,
  "ಶೃ": 7081,
  "ಶೃಂಗ": 7082,
  "ಶೃಂಗಾ": 7083,
  "ಶೃಂಗೇ": 7084,
  "ಶೃಂಗೇರಿಯ</w>": 7085,
  "ಶೆ": 7086,
  "ಶೆ</w>": 7087,
  "ಶೆಟ್ಟ": 7088,
  "ಶೇ": 7089,
  "ಶೇ</w>": 7090,
  "ಶೇಖ": 7091,
  "ಶೇಷ": 7092,
  "ಶೇಷ</w>": 7093,
  "ಶೇಷಶಯನ</w>": 7094,
  "ಶೇಷಾ": 7095,
  "ಶೈ": 7096,
  "ಶೋ": 7097,
  "ಶೋಧ": 7098,
  "ಶೌ": 7099,
  "ಶೌರಿ</w>": 7100,
  "ಶ್": 7101,
  "ಶ್ಚ": 7102,
  "ಶ್ಚಾ": 7103,
  "ಶ್ಚಿ": 7104,
  "ಶ್ಟ": 7105,
  "ಶ್ಯ": 7106,
  "ಶ್ಯ</w>": 7107,
  "ಶ್ಯಾ": 7108,
  "ಶ್ಯಾ</w>": 7109,
  "ಶ್ರ": 7110,
  "ಶ್ರ</w>": 7111,
  "ಶ್ರದ್ಧ": 7112,
  "ಶ್ರಮ": 7113,
  "ಶ್ರಮ</w>": 7114,
  "ಶ್ರಾ": 7115,
  "ಶ್ರಾಂತಿ</w>": 7116,
  "ಶ್ರಿ": 7117,
  "ಶ್ರೀ": 7118,
  "ಶ್ರೀ</w>": 7119,
  "ಶ್ರೀಕಂಠ": 7120,
  "ಶ್ರೀಕೃಷ್ಣನ</w>": 7121,
  "ಶ್ರೀಧರ": 7122,
  "ಶ್ರೀನಿ": 7123,
  "ಶ್ರೀನಿನಾಸ": 7124,
  "ಶ್ರೀನಿವಾ": 7125,
  "ಶ್ರೀನಿವಾಸ": 7126,
  "ಶ್ರೀಪತಿ</w>": 7127,
  "ಶ್ರೀಮ": 7128,
  "ಶ್ರೀಮತಿ</w>": 7129,
  "ಶ್ರೀರಂಗ": 7130,
  "ಶ್ರೀರಂಗಂ</w>": 7131,
  "ಶ್ರೀರಾಮ</w>": 7132,
  "ಶ್ರೀಹರಿ</w>": 7133,
  "ಶ್ರೀಹರಿಯ</w>": 7134,
  "ಶ್ರು": 7135,
  "ಶ್ರುತಿ</w>": 7136,
  "ಶ್ರೇ": 7137,
  "ಶ್ರೇಷ್ಠ": 7138,
  "ಶ್ರೇಷ್ಠ</w>": 7139,
  "ಶ್ವ": 7140,
  "ಶ್ವರ": 7141,
  "ಶ್ವರ</w>": 7142,
  "ಶ್ವರಿ</w>": 7143,
  "ಶ್ವರ್": 7144,
  "ಶ್ವಾ": 7145,
  "ಶ್‌</w>": 7146,
  "ಶ೦": 7147,
  "ಷ": 7148,
  "ಷ</w>": 7149,
  "ಷಡ್": 7150,
  "ಷಣ": 7151,
  "ಷಣ</w>": 7152,
  "ಷಾ": 7153,
  "ಷಿ": 7154,
  "ಷಿ</w>": 7155,
  "ಷು</w>": 7156,
  "ಷೆ</w>": 7157,
  "ಷ್": 7158,
  "ಷ್ಕ</w>": 7159,
  "ಷ್ಟ": 7160,
  "ಷ್ಟ</w>": 7161,
  "ಷ್ಟರಲ್ಲಿ</w>": 7162,
  "ಷ್ಟಿ": 7163,
  "ಷ್ಟಿ</w>": 7164,
  "ಷ್ಟು)</w>": 7165,
  "ಷ್ಟು</w>": 7166,
  "ಷ್ಟೇ</w>": 7167,
  "ಷ್ಟ್ರ": 7168,
  "ಷ್ಟ್ರ</w>": 7169,
  "ಷ್ಟ್ರು</w>": 7170,
  "ಷ್ಠ": 7171,
  "ಷ್ಠ</w>": 7172,
  "ಷ್ಠಾ": 7173,
  "ಷ್ಣ": 7174,
  "ಷ್ಪ": 7175,
  "ಷ್ಯ": 7176,
  "ಷ್ಯ</w>": 7177,
  "ಷ್‌</w>": 7178,
  "ಸ": 7179,
  "ಸ,</w>": 7180,
  "ಸ.</w>": 7181,
  "ಸ</w>": 7182,
  "ಸಂ": 7183,
  "ಸಂ</w>": 7184,
  "ಸಂಕಟ": 7185,
  "ಸಂಕಟ</w>": 7186,
  "ಸಂಕಲ": 7187,
  "ಸಂಕೇ": 7188,
  "ಸಂಕೋ": 7189,
  "ಸಂಕ್ಷಿ": 7190,
  "ಸಂಖ್ಯ": 7191,
  "ಸಂಗ": 7192,
  "ಸಂಗ</w>": 7193,
  "ಸಂಗಾ": 7194,
  "ಸಂಗೀ": 7195,
  "ಸಂಗೀತ": 7196,
  "ಸಂಗೀತ</w>": 7197,
  "ಸಂಗೀತದ</w>": 7198,
  "ಸಂಗ್ರಹ": 7199,
  "ಸಂಘ": 7200,
  "ಸಂಘದ</w>": 7201,
  "ಸಂಚಿ": 7202,
  "ಸಂಜ": 7203,
  "ಸಂಜೀ": 7204,
  "ಸಂಜೀವಿ</w>": 7205,
  "ಸಂಜೆ</w>": 7206,
  "ಸಂಜೆಯ": 7207,
  "ಸಂಜೆಯ</w>": 7208,
  "ಸಂತ": 7209,
  "ಸಂತೃ": 7210,
  "ಸಂತೋ": 7211,
  "ಸಂತೋಷ": 7212,
  "ಸಂತೋಷ</w>": 7213,
  "ಸಂದ": 7214,
  "ಸಂದರ್ಭ": 7215,
  "ಸಂದರ್ಭದಲ್ಲಿ</w>": 7216,
  "ಸಂದರ್ಶ": 7217,
  "ಸಂದರ್ಶನ</w>": 7218,
  "ಸಂಪ": 7219,
  "ಸಂಪರ್ಕ</w>": 7220,
  "ಸಂಪಾದ": 7221,
  "ಸಂಪಾದಕ": 7222,
  "ಸಂಪಿಗೆ</w>": 7223,
  "ಸಂಪುಟ": 7224,
  "ಸಂಪೂರ್ಣ</w>": 7225,
  "ಸಂಪ್ರ": 7226,
  "ಸಂಪ್ರದಾ": 7227,
  "ಸಂಪ್ರದಾಯ": 7228,
  "ಸಂಬ": 7229,
  "ಸಂಬಂಧ": 7230,
  "ಸಂಬಂಧ</w>": 7231,
  "ಸಂಭಾಷ": 7232,
  "ಸಂಭ್ರಮ": 7233,
  "ಸಂಶಯ": 7234,
  "ಸಂಶೋಧ": 7235,
  "ಸಂಸಾ": 7236,
  "ಸಂಸಾರ": 7237,
  "ಸಂಸಾರ</w>": 7238,
  "ಸಂಸಾರದ</w>": 7239,
  "ಸಂಸ್": 7240,
  "ಸಂಸ್ಕೃ": 7241,
  "ಸಂಸ್ಕೃತ": 7242,
  "ಸಂಸ್ಕೃತ</w>": 7243,
  "ಸಂಸ್ಕೃತಿ</w>": 7244,
  "ಸಂಸ್ಥ": 7245,
  "ಸಕ": 7246,
  "ಸಕಲ</w>": 7247,
  "ಸಕ್ಕ": 7248,
  "ಸಕ್ಕೆ</w>": 7249,
  "ಸಖ": 7250,
  "ಸಖ</w>": 7251,
  "ಸಜ</w>": 7252,
  "ಸಜ್": 7253,
  "ಸಜ್ಜನರ</w>": 7254,
  "ಸಟ": 7255,
  "ಸಟ್ಟ": 7256,
  "ಸಡಗ": 7257,
  "ಸಣ್ಣ": 7258,
  "ಸಣ್ಣ</w>": 7259,
  "ಸತ": 7260,
  "ಸತ</w>": 7261,
  "ಸತಿ": 7262,
  "ಸತಿ</w>": 7263,
  "ಸತಿಯ": 7264,
  "ಸತಿಯ</w>": 7265,
  "ಸತ್": 7266,
  "ಸತ್ತ": 7267,
  "ಸತ್ತ</w>": 7268,
  "ಸತ್ತು</w>": 7269,
  "ಸತ್ತ್ವ": 7270,
  "ಸತ್ಯ": 7271,
  "ಸತ್ಯ</w>": 7272,
  "ಸತ್ಯದ</w>": 7273,
  "ಸತ್ಯವ": 7274,
  "ಸತ್ಯವತಿ</w>": 7275,
  "ಸತ್ಯವತಿಯ</w>": 7276,
  "ಸತ್ಯಾಗ": 7277,
  "ಸತ್ಯಾಗ್ರ": 7278,
  "ಸತ್ಯಾಗ್ರಹ": 7279,
  "ಸತ್ಯಾಗ್ರಹ</w>": 7280,
  "ಸತ್ರ</w>": 7281,
  "ಸದ": 7282,
  "ಸದ</w>": 7283,
  "ಸದಲ್ಲಿ</w>": 7284,
  "ಸದಸ್ಯ": 7285,
  "ಸದಾ": 7286,
  "ಸದಾ</w>": 7287,
  "ಸದಿಂದ</w>": 7288,
  "ಸದ್": 7289,
  "ಸದ್ದಿ": 7290,
  "ಸದ್ದು</w>": 7291,
  "ಸದ್ಯ": 7292,
  "ಸದ್ಯ</w>": 7293,
  "ಸದ್ಯಕ್ಕೆ</w>": 7294,
  "ಸನ": 7295,
  "ಸನ</w>": 7296,
  "ಸನಿ": 7297,
  "ಸನ್": 7298,
  "ಸನ್ನ": 7299,
  "ಸನ್ನ</w>": 7300,
  "ಸನ್ನಿ": 7301,
  "ಸನ್ನು": 7302,
  "ಸನ್ನು</w>": 7303,
  "ಸನ್ಮಾ": 7304,
  "ಸನ್ಮಾನ": 7305,
  "ಸನ್ಮಾನ</w>": 7306,
  "ಸನ್ಮಾನಕ್ಕೆ</w>": 7307,
  "ಸನ್ಯಾ": 7308,
  "ಸಭ": 7309,
  "ಸಭೆ</w>": 7310,
  "ಸಭೆಯಲ್ಲಿ</w>": 7311,
  "ಸಮ": 7312,
  "ಸಮಕಾಲ": 7313,
  "ಸಮಗ್ರ</w>": 7314,
  "ಸಮಯ": 7315,
  "ಸಮಯ</w>": 7316,
  "ಸಮಯದಲ್ಲಿ</w>": 7317,
  "ಸಮರ್ಥ": 7318,
  "ಸಮಸ್ಯ": 7319,
  "ಸಮಸ್ಯೆಗಳ</w>": 7320,
  "ಸಮಾ": 7321,
  "ಸಮಾ</w>": 7322,
  "ಸಮಾಜ": 7323,
  "ಸಮಾಜ</w>": 7324,
  "ಸಮಾಜದ</w>": 7325,
  "ಸಮಾಜದಲ್ಲಿ</w>": 7326,
  "ಸಮಾಧಾನ": 7327,
  "ಸಮಾಧಾನ</w>": 7328,
  "ಸಮಾನ</w>": 7329,
  "ಸಮಾರಂಭ": 7330,
  "ಸಮಾರಂಭ</w>": 7331,
  "ಸಮಾರಂಭಕ್ಕೆ</w>": 7332,
  "ಸಮಾರಂಭದಲ್ಲಿ</w>": 7333,
  "ಸಮಿ": 7334,
  "ಸಮೀ": 7335,
  "ಸಮು": 7336,
  "ಸಮುದ್ರ": 7337,
  "ಸಮುದ್ರ</w>": 7338,
  "ಸಮುದ್ರದ</w>": 7339,
  "ಸಮೂ": 7340,
  "ಸಮೂಹ</w>": 7341,
  "ಸಮೇ": 7342,
  "ಸಮೇತ</w>": 7343,
  "ಸಮ್ಮ": 7344,
  "ಸಮ್ಮೇಳ": 7345,
  "ಸಮ್ಮೇಳನಕ್ಕೆ</w>": 7346,
  "ಸಮ್ಮೇಳನದಲ್ಲಿ</w>": 7347,
  "ಸರ": 7348,
  "ಸರ</w>": 7349,
  "ಸರನ್ನು</w>": 7350,
  "ಸರಳ": 7351,
  "ಸರಳ</w>": 7352,
  "ಸರಸ": 7353,
  "ಸರಸಿ": 7354,
  "ಸರಸ್ವ": 7355,
  "ಸರಾ": 7356,
  "ಸರಿ": 7357,
  "ಸರಿ,</w>": 7358,
  "ಸರಿ</w>": 7359,
  "ಸರಿಗೆ</w>": 7360,
  "ಸರಿದು</w>": 7361,
  "ಸರಿಯ": 7362,
  "ಸರಿಯಾಗಿ</w>": 7363,
  "ಸರಿಯಾದ</w>": 7364,
  "ಸರಿಸ": 7365,
  "ಸರು</w>": 7366,
  "ಸರೋ": 7367,
  "ಸರ್": 7368,
  "ಸರ್ಕಾರ": 7369,
  "ಸರ್ಕಾರ</w>": 7370,
  "ಸರ್ಕಾರದ</w>": 7371,
  "ಸರ್ಕಾರಿ</w>": 7372,
  "ಸರ್ಪ": 7373,
  "ಸರ್ಪ</w>": 7374,
  "ಸರ್ವ": 7375,
  "ಸರ್ವ</w>": 7376,
  "ಸರ್ವಾ": 7377,
  "ಸರ್ವೋತ್ತ": 7378,
  "ಸರ್ವೋತ್ತಮತ್": 7379,
  "ಸರ್ವೋತ್ತಮತ್ವ</w>": 7380,
  "ಸರ್‌</w>": 7381,
  "ಸಲ": 7382,
  "ಸಲ</w>": 7383,
  "ಸಲಹ": 7384,
  "ಸಲಹೆ": 7385,
  "ಸಲಹೆ</w>": 7386,
  "ಸಲಹೊ</w>": 7387,
  "ಸಲು": 7388,
  "ಸಲು</w>": 7389,
  "ಸಲುವಾಗಿ</w>": 7390,
  "ಸಲೆ</w>": 7391,
  "ಸಲ್ಲ": 7392,
  "ಸವ": 7393,
  "ಸವ</w>": 7394,
  "ಸವನ್ನು</w>": 7395,
  "ಸವಾ": 7396,
  "ಸವಾಲು</w>": 7397,
  "ಸವಿ": 7398,
  "ಸವಿಯ": 7399,
  "ಸಸ</w>": 7400,
  "ಸಹ": 7401,
  "ಸಹ</w>": 7402,
  "ಸಹಕ": 7403,
  "ಸಹಜ": 7404,
  "ಸಹಜ</w>": 7405,
  "ಸಹಾ": 7406,
  "ಸಹಾನು": 7407,
  "ಸಹಾನುಭೂ": 7408,
  "ಸಹಾಯ": 7409,
  "ಸಹಾಯ</w>": 7410,
  "ಸಹಿತ</w>": 7411,
  "ಸಹಿಸ": 7412,
  "ಸಹೃ": 7413,
  "ಸಾ": 7414,
  "ಸಾ</w>": 7415,
  "ಸಾಂ": 7416,
  "ಸಾಕ": 7417,
  "ಸಾಕಷ್ಟು</w>": 7418,
  "ಸಾಕಾಗಿ</w>": 7419,
  "ಸಾಕು": 7420,
  "ಸಾಕು,</w>": 7421,
  "ಸಾಕು</w>": 7422,
  "ಸಾಕ್ಷ": 7423,
  "ಸಾಕ್ಷಿ": 7424,
  "ಸಾಗ": 7425,
  "ಸಾಗರ": 7426,
  "ಸಾಗರ</w>": 7427,
  "ಸಾಗಿ</w>": 7428,
  "ಸಾತ್ತ್": 7429,
  "ಸಾತ್ತ್ವಿ": 7430,
  "ಸಾದ</w>": 7431,
  "ಸಾಧ": 7432,
  "ಸಾಧನ": 7433,
  "ಸಾಧನೆ</w>": 7434,
  "ಸಾಧು</w>": 7435,
  "ಸಾಧ್ಯ": 7436,
  "ಸಾಧ್ಯವಾಗ": 7437,
  "ಸಾಧ್ಯವಿಲ್ಲ.</w>": 7438,
  "ಸಾಬೀ": 7439,
  "ಸಾಮ": 7440,
  "ಸಾಮರ್ಥ": 7441,
  "ಸಾಮಾ": 7442,
  "ಸಾಮಾಜಿ": 7443,
  "ಸಾಮಾಜಿಕ</w>": 7444,
  "ಸಾಮಾನು": 7445,
  "ಸಾಮಾನ್ಯ": 7446,
  "ಸಾಮಾನ್ಯ</w>": 7447,
  "ಸಾಮಿ</w>": 7448,
  "ಸಾಮ್ರಾ": 7449,
  "ಸಾಯ": 7450,
  "ಸಾಯಂ": 7451,
  "ಸಾಯಂಕಾಲ</w>": 7452,
  "ಸಾರ": 7453,
  "ಸಾರ</w>": 7454,
  "ಸಾರಥ": 7455,
  "ಸಾರಥಿ</w>": 7456,
  "ಸಾರಿ</w>": 7457,
  "ಸಾರ್ಥ": 7458,
  "ಸಾರ್ವ": 7459,
  "ಸಾರ್ವಜ": 7460,
  "ಸಾರ್ವಜನಿಕ</w>": 7461,
  "ಸಾಲ": 7462,
  "ಸಾಲ</w>": 7463,
  "ಸಾಲಿ": 7464,
  "ಸಾಲಿಗೆ</w>": 7465,
  "ಸಾಲಿನ</w>": 7466,
  "ಸಾಲಿನಲ್ಲಿ</w>": 7467,
  "ಸಾಲು": 7468,
  "ಸಾಲು</w>": 7469,
  "ಸಾಳ": 7470,
  "ಸಾವ": 7471,
  "ಸಾವಿ": 7472,
  "ಸಾವಿನ</w>": 7473,
  "ಸಾವಿರ</w>": 7474,
  "ಸಾವು</w>": 7475,
  "ಸಾವೇರಿ</w>": 7476,
  "ಸಾಸಿರ</w>": 7477,
  "ಸಾಹ": 7478,
  "ಸಾಹ</w>": 7479,
  "ಸಾಹಸ": 7480,
  "ಸಾಹಸ</w>": 7481,
  "ಸಾಹಿ": 7482,
  "ಸಾಹಿತಿ": 7483,
  "ಸಾಹಿತಿ</w>": 7484,
  "ಸಾಹಿತಿಗಳ</w>": 7485,
  "ಸಾಹಿತ್": 7486,
  "ಸಾಹಿತ್ಯ": 7487,
  "ಸಾಹಿತ್ಯ</w>": 7488,
  "ಸಾಹಿತ್ಯದ</w>": 7489,
  "ಸಾಹಿತ್ಯದಲ್ಲಿ</w>": 7490,
  "ಸಾಹಿತ್ಯವನ್ನು</w>": 7491,
  "ಸಾಹಿತ್ಯಾ": 7492,
  "ಸಿ": 7493,
  "ಸಿ,</w>": 7494,
  "ಸಿ.": 7495,
  "ಸಿ.</w>": 7496,
  "ಸಿ</w>": 7497,
  "ಸಿಂ": 7498,
  "ಸಿಂಧ": 7499,
  "ಸಿಂಧು</w>": 7500,
  "ಸಿಂಹ</w>": 7501,
  "ಸಿಂಹಾ": 7502,
  "ಸಿಕ</w>": 7503,
  "ಸಿಕೊಂಡ": 7504,
  "ಸಿಕೊಂಡು</w>": 7505,
  "ಸಿಕೊಳ್ಳ": 7506,
  "ಸಿಕ್ಕ": 7507,
  "ಸಿಕ್ಕ</w>": 7508,
  "ಸಿಕ್ಕಿ</w>": 7509,
  "ಸಿಗ": 7510,
  "ಸಿಗರೇ": 7511,
  "ಸಿಗರೇಟ": 7512,
  "ಸಿಗರೇಟು</w>": 7513,
  "ಸಿಗರೇಟ್‌</w>": 7514,
  "ಸಿಗೆ</w>": 7515,
  "ಸಿಟ್ಟ": 7516,
  "ಸಿಟ್ಟಿ": 7517,
  "ಸಿಟ್ಟು</w>": 7518,
  "ಸಿಡಿ": 7519,
  "ಸಿಡಿಲು</w>": 7520,
  "ಸಿದ": 7521,
  "ಸಿದ</w>": 7522,
  "ಸಿದರು.</w>": 7523,
  "ಸಿದರೆ</w>": 7524,
  "ಸಿದ್": 7525,
  "ಸಿದ್ದ": 7526,
  "ಸಿದ್ದ</w>": 7527,
  "ಸಿದ್ಧ": 7528,
  "ಸಿದ್ಧ</w>": 7529,
  "ಸಿದ್ಧಪಡಿಸ": 7530,
  "ಸಿದ್ಧಾ": 7531,
  "ಸಿದ್ಧಾಂತ": 7532,
  "ಸಿದ್ಧಿ</w>": 7533,
  "ಸಿನ</w>": 7534,
  "ಸಿನಲ್ಲಿ</w>": 7535,
  "ಸಿನಿ": 7536,
  "ಸಿನಿಮಾ": 7537,
  "ಸಿನಿಮಾ</w>": 7538,
  "ಸಿಯ": 7539,
  "ಸಿಯ</w>": 7540,
  "ಸಿರ</w>": 7541,
  "ಸಿರಿ": 7542,
  "ಸಿರಿ</w>": 7543,
  "ಸಿರಿಯ": 7544,
  "ಸಿರಿಯ</w>": 7545,
  "ಸಿರಿಯೆ</w>": 7546,
  "ಸಿರು</w>": 7547,
  "ಸಿಲು": 7548,
  "ಸಿಲ್": 7549,
  "ಸಿಸ": 7550,
  "ಸಿಹಿ</w>": 7551,
  "ಸಿ೦": 7552,
  "ಸೀ": 7553,
  "ಸೀತಾ": 7554,
  "ಸೀತಾರಾಮ": 7555,
  "ಸೀತೆ</w>": 7556,
  "ಸೀತೆಯ</w>": 7557,
  "ಸೀಮ": 7558,
  "ಸೀಮೆ": 7559,
  "ಸೀಮೆಯ</w>": 7560,
  "ಸೀರೆ</w>": 7561,
  "ಸೀರೆಯ": 7562,
  "ಸೀಳ": 7563,
  "ಸೀಳಿ</w>": 7564,
  "ಸು": 7565,
  "ಸು,</w>": 7566,
  "ಸು.": 7567,
  "ಸು.</w>": 7568,
  "ಸು</w>": 7569,
  "ಸುಂದ": 7570,
  "ಸುಂದರ</w>": 7571,
  "ಸುಂದ್ರ</w>": 7572,
  "ಸುಕುಮಾರ</w>": 7573,
  "ಸುಖ": 7574,
  "ಸುಖ</w>": 7575,
  "ಸುಟ್ಟ": 7576,
  "ಸುಟ್ಟು</w>": 7577,
  "ಸುತ": 7578,
  "ಸುತ</w>": 7579,
  "ಸುತನ</w>": 7580,
  "ಸುತ್ತ": 7581,
  "ಸುತ್ತ</w>": 7582,
  "ಸುತ್ತಮುತ್ತ": 7583,
  "ಸುತ್ತಲ</w>": 7584,
  "ಸುತ್ತಲೂ</w>": 7585,
  "ಸುತ್ತಾ": 7586,
  "ಸುತ್ತಿ</w>": 7587,
  "ಸುತ್ತಿದ್ದ</w>": 7588,
  "ಸುತ್ತು'</w>": 7589,
  "ಸುದ್": 7590,
  "ಸುದ್ದಿ</w>": 7591,
  "ಸುದ್ದಿಯನ್ನು</w>": 7592,
  "ಸುಧ": 7593,
  "ಸುಧಾ": 7594,
  "ಸುಬ್ಬ": 7595,
  "ಸುಬ್ಬಣ್ಣ": 7596,
  "ಸುಬ್ಬಣ್ಣ,</w>": 7597,
  "ಸುಬ್ಬಣ್ಣ</w>": 7598,
  "ಸುಬ್ಬರಾಯ": 7599,
  "ಸುಬ್ಬರಾಯರು</w>": 7600,
  "ಸುಬ್ಬರಾಯರೇ,</w>": 7601,
  "ಸುಬ್ಬು,</w>": 7602,
  "ಸುಬ್ಬು</w>": 7603,
  "ಸುಮಾರು</w>": 7604,
  "ಸುಮ್": 7605,
  "ಸುಮ್ಮ": 7606,
  "ಸುಮ್ಮನೆ</w>": 7607,
  "ಸುರ": 7608,
  "ಸುರ</w>": 7609,
  "ಸುರನ</w>": 7610,
  "ಸುರರ</w>": 7611,
  "ಸುರರು</w>": 7612,
  "ಸುರಿ": 7613,
  "ಸುರಿಯ": 7614,
  "ಸುರು": 7615,
  "ಸುಲ": 7616,
  "ಸುಲಭ": 7617,
  "ಸುಲಭ</w>": 7618,
  "ಸುಲಭವಾಗಿ</w>": 7619,
  "ಸುಲ್": 7620,
  "ಸುಲ್ತಾ": 7621,
  "ಸುಳಿ": 7622,
  "ಸುಳಿದ": 7623,
  "ಸುಳಿಯ": 7624,
  "ಸುಳ್ಳ": 7625,
  "ಸುಳ್ಳು</w>": 7626,
  "ಸುವ": 7627,
  "ಸುವ</w>": 7628,
  "ಸುಷ": 7629,
  "ಸುಸ್ತ": 7630,
  "ಸೂ": 7631,
  "ಸೂ</w>": 7632,
  "ಸೂಕ್ಷ": 7633,
  "ಸೂಕ್ಷ್ಮ": 7634,
  "ಸೂಚ": 7635,
  "ಸೂಚನೆ</w>": 7636,
  "ಸೂಚಿಸುತ್ತದೆ.</w>": 7637,
  "ಸೂತ್ರ": 7638,
  "ಸೂರ್ಯ": 7639,
  "ಸೂರ್ಯ</w>": 7640,
  "ಸೂರ್ಯನ</w>": 7641,
  "ಸೃ": 7642,
  "ಸೃಷ್ಟ": 7643,
  "ಸೃಷ್ಟಿ</w>": 7644,
  "ಸೆ": 7645,
  "ಸೆ</w>": 7646,
  "ಸೆಕೆ": 7647,
  "ಸೆಗೆ</w>": 7648,
  "ಸೆಯ": 7649,
  "ಸೆಯ</w>": 7650,
  "ಸೆಯನ್ನು</w>": 7651,
  "ಸೆರ": 7652,
  "ಸೆರಗ": 7653,
  "ಸೆರೆ": 7654,
  "ಸೆರೆ</w>": 7655,
  "ಸೆರೆನು": 7656,
  "ಸೆರೆಮನೆಗೆ</w>": 7657,
  "ಸೆರೆಮನೆಯ</w>": 7658,
  "ಸೆರೆಯ": 7659,
  "ಸೆಳೆ": 7660,
  "ಸೆಳೆಯ": 7661,
  "ಸೇ": 7662,
  "ಸೇ</w>": 7663,
  "ಸೇಕ್ಷ": 7664,
  "ಸೇದ": 7665,
  "ಸೇರ": 7666,
  "ಸೇರಿ": 7667,
  "ಸೇರಿ,</w>": 7668,
  "ಸೇರಿ</w>": 7669,
  "ಸೇರಿದ": 7670,
  "ಸೇರಿದ</w>": 7671,
  "ಸೇರಿಸ": 7672,
  "ಸೇರುವ</w>": 7673,
  "ಸೇರ್": 7674,
  "ಸೇವ": 7675,
  "ಸೇವಕ</w>": 7676,
  "ಸೇವೆ": 7677,
  "ಸೇವೆ</w>": 7678,
  "ಸೇವೆಗೆ</w>": 7679,
  "ಸೇವೆಯ": 7680,
  "ಸೈ": 7681,
  "ಸೈ</w>": 7682,
  "ಸೈತ</w>": 7683,
  "ಸೈನಿ": 7684,
  "ಸೊ": 7685,
  "ಸೊ</w>": 7686,
  "ಸೊಕ್ಕ": 7687,
  "ಸೊಗ": 7688,
  "ಸೊಗಸಾಗಿ</w>": 7689,
  "ಸೊಪ್ಪ": 7690,
  "ಸೊಸೆಯ": 7691,
  "ಸೋ": 7692,
  "ಸೋದರ": 7693,
  "ಸೋದರ</w>": 7694,
  "ಸೋದರಮಾವ</w>": 7695,
  "ಸೋಮ": 7696,
  "ಸೌ": 7697,
  "ಸೌರಾ": 7698,
  "ಸೌರಾಷ್ಟ್ರ</w>": 7699,
  "ಸ್": 7700,
  "ಸ್ಕ": 7701,
  "ಸ್ಕ</w>": 7702,
  "ಸ್ಕುತಿ</w>": 7703,
  "ಸ್ಕೂ": 7704,
  "ಸ್ಟ": 7705,
  "ಸ್ಟಾ": 7706,
  "ಸ್ಟಿ</w>": 7707,
  "ಸ್ಟು</w>": 7708,
  "ಸ್ಟೆ": 7709,
  "ಸ್ಟೇ": 7710,
  "ಸ್ಟೇ</w>": 7711,
  "ಸ್ಟ್ರ": 7712,
  "ಸ್ಟ್‌</w>": 7713,
  "ಸ್ತ": 7714,
  "ಸ್ತ</w>": 7715,
  "ಸ್ತಾ": 7716,
  "ಸ್ತಿ": 7717,
  "ಸ್ತಿ</w>": 7718,
  "ಸ್ತು": 7719,
  "ಸ್ತುತ": 7720,
  "ಸ್ತುತಿ</w>": 7721,
  "ಸ್ತೋ": 7722,
  "ಸ್ತ್ರ": 7723,
  "ಸ್ತ್ರೀಯ": 7724,
  "ಸ್ಥ": 7725,
  "ಸ್ಥ</w>": 7726,
  "ಸ್ಥಳ": 7727,
  "ಸ್ಥಳ</w>": 7728,
  "ಸ್ಥಾ": 7729,
  "ಸ್ಥಾ</w>": 7730,
  "ಸ್ಥಾನ": 7731,
  "ಸ್ಥಾನ</w>": 7732,
  "ಸ್ಥಾನದ</w>": 7733,
  "ಸ್ಥಾಪ": 7734,
  "ಸ್ಥಿ": 7735,
  "ಸ್ಥಿ</w>": 7736,
  "ಸ್ಥಿತಿ</w>": 7737,
  "ಸ್ಥಿತಿಯ": 7738,
  "ಸ್ಥಿತಿಯನ್ನು</w>": 7739,
  "ಸ್ಥಿತಿಯಲ್ಲಿ</w>": 7740,
  "ಸ್ಥಿರ": 7741,
  "ಸ್ಥೂ": 7742,
  "ಸ್ಥೆ</w>": 7743,
  "ಸ್ನ</w>": 7744,
  "ಸ್ನಾ": 7745,
  "ಸ್ನಾನ</w>": 7746,
  "ಸ್ನೇ": 7747,
  "ಸ್ನೇಹ": 7748,
  "ಸ್ನೇಹ</w>": 7749,
  "ಸ್ನೇಹಿತ": 7750,
  "ಸ್ನೇಹಿತರು</w>": 7751,
  "ಸ್ಪ": 7752,
  "ಸ್ಪ</w>": 7753,
  "ಸ್ಪರ</w>": 7754,
  "ಸ್ಪರ್ಧ": 7755,
  "ಸ್ಪರ್ಶ": 7756,
  "ಸ್ಪಷ್ಟ": 7757,
  "ಸ್ಪೇ": 7758,
  "ಸ್ಫ": 7759,
  "ಸ್ಫೂ": 7760,
  "ಸ್ಫೂರ್": 7761,
  "ಸ್ಫೂರ್ತಿ</w>": 7762,
  "ಸ್ಮ": 7763,
  "ಸ್ಮರಣ": 7764,
  "ಸ್ಮರಣೆ</w>": 7765,
  "ಸ್ಮರಿಸ": 7766,
  "ಸ್ಯ": 7767,
  "ಸ್ಯ</w>": 7768,
  "ಸ್ಯಾ": 7769,
  "ಸ್ರ": 7770,
  "ಸ್ರ</w>": 7771,
  "ಸ್ಲೇ": 7772,
  "ಸ್ವ": 7773,
  "ಸ್ವಂತ</w>": 7774,
  "ಸ್ವಚ್ಛ": 7775,
  "ಸ್ವತಂತ್ರ": 7776,
  "ಸ್ವತಃ</w>": 7777,
  "ಸ್ವರ": 7778,
  "ಸ್ವರೂ": 7779,
  "ಸ್ವರ್ಗ": 7780,
  "ಸ್ವಲ್ಪ": 7781,
  "ಸ್ವಲ್ಪ</w>": 7782,
  "ಸ್ವಾ": 7783,
  "ಸ್ವಾಗ": 7784,
  "ಸ್ವಾತಂ": 7785,
  "ಸ್ವಾತಂತ್": 7786,
  "ಸ್ವಾತಂತ್ರ್ಯ": 7787,
  "ಸ್ವಾತಂತ್ರ್ಯ</w>": 7788,
  "ಸ್ವಾಮ": 7789,
  "ಸ್ವಾಮಿ": 7790,
  "ಸ್ವಾಮಿ,</w>": 7791,
  "ಸ್ವಾಮಿ</w>": 7792,
  "ಸ್ವಾಮಿಗಳು</w>": 7793,
  "ಸ್ವೀಕ": 7794,
  "ಸ್ಸ": 7795,
  "ಸ್ಸ</w>": 7796,
  "ಸ್ಸಿ": 7797,
  "ಸ್ಸು</w>": 7798,
  "ಸ್‌": 7799,
  "ಸ್‌'</w>": 7800,
  "ಸ್‌,</w>": 7801,
  "ಸ್‌</w>": 7802,
  "ಸ್‌ನ</w>": 7803,
  "ಸ೦": 7804,
  "ಹ": 7805,
  "ಹ</w>": 7806,
  "ಹಂ": 7807,
  "ಹಂಗ": 7808,
  "ಹಂಗಾದ್ರೆ</w>": 7809,
  "ಹಂಗೆ</w>": 7810,
  "ಹಂಗೇ</w>": 7811,
  "ಹಂಚ": 7812,
  "ಹಂತ": 7813,
  "ಹಂದ": 7814,
  "ಹಂಪ": 7815,
  "ಹಂಬ": 7816,
  "ಹಂಸ": 7817,
  "ಹಕ್ಕ": 7818,
  "ಹಕ್ಕಿ": 7819,
  "ಹಕ್ಕಿ</w>": 7820,
  "ಹಕ್ಕಿಪಿ": 7821,
  "ಹಕ್ಕಿಪಿಕ್ಕೇ": 7822,
  "ಹಗ": 7823,
  "ಹಗಲು</w>": 7824,
  "ಹಗ್ಗ": 7825,
  "ಹಗ್ಗ</w>": 7826,
  "ಹಚ್ಚ": 7827,
  "ಹಟ</w>": 7828,
  "ಹಟ್ಟ": 7829,
  "ಹಟ್ಟಿ</w>": 7830,
  "ಹಠ": 7831,
  "ಹಣ": 7832,
  "ಹಣ</w>": 7833,
  "ಹಣವನ್ನು</w>": 7834,
  "ಹಣೆ": 7835,
  "ಹಣ್ಣ": 7836,
  "ಹಣ್ಣಿನ</w>": 7837,
  "ಹಣ್ಣು": 7838,
  "ಹಣ್ಣು,</w>": 7839,
  "ಹಣ್ಣು</w>": 7840,
  "ಹತ್ತ": 7841,
  "ಹತ್ತಾರು</w>": 7842,
  "ಹತ್ತಿ": 7843,
  "ಹತ್ತಿ</w>": 7844,
  "ಹತ್ತಿರ": 7845,
  "ಹತ್ತಿರ</w>": 7846,
  "ಹತ್ತು</w>": 7847,
  "ಹತ್ಯ": 7848,
  "ಹದ": 7849,
  "ಹದ</w>": 7850,
  "ಹದಿ": 7851,
  "ಹದಿನ": 7852,
  "ಹದಿನಾರ": 7853,
  "ಹದಿನಾರನೆಯ</w>": 7854,
  "ಹದಿನಾರು</w>": 7855,
  "ಹದಿನಾಲ್ಕು</w>": 7856,
  "ಹದಿನೈದು</w>": 7857,
  "ಹನ</w>": 7858,
  "ಹನು": 7859,
  "ಹನುಮ": 7860,
  "ಹನುಮಂತ": 7861,
  "ಹನುಮಂತ</w>": 7862,
  "ಹನೆ</w>": 7863,
  "ಹನ್ನ": 7864,
  "ಹನ್ನೆರಡ": 7865,
  "ಹನ್ನೆರಡು</w>": 7866,
  "ಹನ್ನೊಂದು</w>": 7867,
  "ಹಬ್ಬ": 7868,
  "ಹಬ್ಬ</w>": 7869,
  "ಹಯ": 7870,
  "ಹರ": 7871,
  "ಹರ</w>": 7872,
  "ಹರಟಿ</w>": 7873,
  "ಹರಣ</w>": 7874,
  "ಹರನ</w>": 7875,
  "ಹರಿ": 7876,
  "ಹರಿ</w>": 7877,
  "ಹರಿಗೆ</w>": 7878,
  "ಹರಿದ": 7879,
  "ಹರಿದಾ": 7880,
  "ಹರಿದಾಸ</w>": 7881,
  "ಹರಿದು</w>": 7882,
  "ಹರಿಯ": 7883,
  "ಹರಿಯ</w>": 7884,
  "ಹರಿಯು</w>": 7885,
  "ಹರಿಯೆ</w>": 7886,
  "ಹರಿಸ": 7887,
  "ಹರಿಹರ": 7888,
  "ಹರಿಹರ</w>": 7889,
  "ಹರು</w>": 7890,
  "ಹರುಷ": 7891,
  "ಹಲ": 7892,
  "ಹಲ</w>": 7893,
  "ಹಲವಾರು</w>": 7894,
  "ಹಲವು</w>": 7895,
  "ಹಲಸಿನ</w>": 7896,
  "ಹಲ್ಲ": 7897,
  "ಹಲ್ಲು</w>": 7898,
  "ಹಳೆಯ</w>": 7899,
  "ಹಳ್ಳ": 7900,
  "ಹಳ್ಳಿ": 7901,
  "ಹಳ್ಳಿ</w>": 7902,
  "ಹಳ್ಳಿಗೆ</w>": 7903,
  "ಹಳ್ಳಿಯ": 7904,
  "ಹಳ್ಳಿಯ</w>": 7905,
  "ಹಸ": 7906,
  "ಹಸಿ": 7907,
  "ಹಸಿರು</w>": 7908,
  "ಹಸಿವು</w>": 7909,
  "ಹಸು": 7910,
  "ಹಸ್ತ": 7911,
  "ಹಸ್ತ</w>": 7912,
  "ಹಾ": 7913,
  "ಹಾ</w>": 7914,
  "ಹಾಕ": 7915,
  "ಹಾಕಿ": 7916,
  "ಹಾಕಿ,</w>": 7917,
  "ಹಾಕಿ</w>": 7918,
  "ಹಾಕಿಕೊಂಡು</w>": 7919,
  "ಹಾಕಿದ": 7920,
  "ಹಾಕಿದ.</w>": 7921,
  "ಹಾಕಿದ</w>": 7922,
  "ಹಾಕಿದರು.</w>": 7923,
  "ಹಾಕಿದ್ದ</w>": 7924,
  "ಹಾಕುವ</w>": 7925,
  "ಹಾಕ್": 7926,
  "ಹಾಗ": 7927,
  "ಹಾಗಾಗಿ</w>": 7928,
  "ಹಾಗೂ</w>": 7929,
  "ಹಾಗೆ.</w>": 7930,
  "ಹಾಗೆ</w>": 7931,
  "ಹಾಗೆಯೇ</w>": 7932,
  "ಹಾಗೇ</w>": 7933,
  "ಹಾಡ": 7934,
  "ಹಾಡಿ</w>": 7935,
  "ಹಾಡಿದ": 7936,
  "ಹಾಡಿದ</w>": 7937,
  "ಹಾಡು": 7938,
  "ಹಾಡುಗಳನ್ನು</w>": 7939,
  "ಹಾಯ": 7940,
  "ಹಾಯಾಗ": 7941,
  "ಹಾಯಾಗಿ</w>": 7942,
  "ಹಾರ": 7943,
  "ಹಾರ</w>": 7944,
  "ಹಾರದ</w>": 7945,
  "ಹಾರಿ": 7946,
  "ಹಾರಿ</w>": 7947,
  "ಹಾರ್": 7948,
  "ಹಾಲು</w>": 7949,
  "ಹಾಳ": 7950,
  "ಹಾಳು</w>": 7951,
  "ಹಾವತಾರ</w>": 7952,
  "ಹಾವನ್ನು</w>": 7953,
  "ಹಾವಿನ</w>": 7954,
  "ಹಾವು": 7955,
  "ಹಾವು</w>": 7956,
  "ಹಾಸಿಗ": 7957,
  "ಹಾಸಿಗೆ</w>": 7958,
  "ಹಾಸಿಗೆಯಾಗ": 7959,
  "ಹಾಸ್ಟೆ": 7960,
  "ಹಿ": 7961,
  "ಹಿ</w>": 7962,
  "ಹಿಂ": 7963,
  "ಹಿಂಕಿರುಗಿ</w>": 7964,
  "ಹಿಂಗ": 7965,
  "ಹಿಂಗೆ</w>": 7966,
  "ಹಿಂಜಿ</w>": 7967,
  "ಹಿಂಡ": 7968,
  "ಹಿಂಡು</w>": 7969,
  "ಹಿಂತ": 7970,
  "ಹಿಂತಿರುಗ": 7971,
  "ಹಿಂತಿರುಗಿ</w>": 7972,
  "ಹಿಂದ": 7973,
  "ಹಿಂದಕ್ಕೆ</w>": 7974,
  "ಹಿಂದಿನ</w>": 7975,
  "ಹಿಂದೂ": 7976,
  "ಹಿಂದೆ</w>": 7977,
  "ಹಿಂಬಾ": 7978,
  "ಹಿಂಸ": 7979,
  "ಹಿಕ</w>": 7980,
  "ಹಿಗ್ಗ": 7981,
  "ಹಿಡ": 7982,
  "ಹಿಡಿ": 7983,
  "ಹಿಡಿದ": 7984,
  "ಹಿಡಿದ</w>": 7985,
  "ಹಿಡಿದು,</w>": 7986,
  "ಹಿಡಿದು</w>": 7987,
  "ಹಿಡಿದುಕೊಂಡು</w>": 7988,
  "ಹಿಡಿಯ": 7989,
  "ಹಿಡಿಯಲು</w>": 7990,
  "ಹಿಡಿಸ": 7991,
  "ಹಿತ": 7992,
  "ಹಿತ</w>": 7993,
  "ಹಿತರ</w>": 7994,
  "ಹಿತ್ತ": 7995,
  "ಹಿದ</w>": 7996,
  "ಹಿನ್ನೆ": 7997,
  "ಹಿರಣ": 7998,
  "ಹಿರಣ್ಯ": 7999,
  "ಹಿರಣ್ಯಕ": 8000,
  "ಹಿರಣ್ಯಕಶ್ಯ": 8001,
  "ಹಿರಣ್ಯಾ": 8002,
  "ಹಿರಿ": 8003,
  "ಹಿರಿಯ": 8004,
  "ಹಿರಿಯ</w>": 8005,
  "ಹಿರಿಯರ</w>": 8006,
  "ಹಿರಿಯರು</w>": 8007,
  "ಹಿ೦": 8008,
  "ಹೀ": 8009,
  "ಹೀಗ": 8010,
  "ಹೀಗಾಗಿ</w>": 8011,
  "ಹೀಗೆ</w>": 8012,
  "ಹೀಗೇ</w>": 8013,
  "ಹೀನ</w>": 8014,
  "ಹು": 8015,
  "ಹು</w>": 8016,
  "ಹುಚ್ಚ": 8017,
  "ಹುಚ್ಚು</w>": 8018,
  "ಹುಟ್ಟ": 8019,
  "ಹುಟ್ಟಿ</w>": 8020,
  "ಹುಟ್ಟಿದ": 8021,
  "ಹುಟ್ಟಿದ</w>": 8022,
  "ಹುಟ್ಟು": 8023,
  "ಹುಟ್ಟು</w>": 8024,
  "ಹುಡು": 8025,
  "ಹುಡುಗ": 8026,
  "ಹುಡುಗ</w>": 8027,
  "ಹುಡುಗರು</w>": 8028,
  "ಹುದು": 8029,
  "ಹುದು</w>": 8030,
  "ಹುದೊ</w>": 8031,
  "ಹುಬ್ಬ": 8032,
  "ಹುರು": 8033,
  "ಹುಲಿ": 8034,
  "ಹುಲ್ಲ": 8035,
  "ಹುಲ್ಲು</w>": 8036,
  "ಹುಷಾ": 8037,
  "ಹೂ": 8038,
  "ಹೂ</w>": 8039,
  "ಹೂಡ": 8040,
  "ಹೂವಿನ</w>": 8041,
  "ಹೂವು": 8042,
  "ಹೂವು</w>": 8043,
  "ಹೃ": 8044,
  "ಹೃದಯ": 8045,
  "ಹೃದಯ</w>": 8046,
  "ಹೃದಯದ</w>": 8047,
  "ಹೃದಯದಲ್ಲಿ</w>": 8048,
  "ಹೆ": 8049,
  "ಹೆ</w>": 8050,
  "ಹೆಂಗ": 8051,
  "ಹೆಂಗಸರ</w>": 8052,
  "ಹೆಂಗಸರು</w>": 8053,
  "ಹೆಂಗೆ</w>": 8054,
  "ಹೆಂಡ": 8055,
  "ಹೆಂಡತಿ</w>": 8056,
  "ಹೆಂಡತಿಯ": 8057,
  "ಹೆಂಡ್": 8058,
  "ಹೆಗ": 8059,
  "ಹೆಗಲ</w>": 8060,
  "ಹೆಚ್ಚ": 8061,
  "ಹೆಚ್ಚಾಗಿ</w>": 8062,
  "ಹೆಚ್ಚಿ</w>": 8063,
  "ಹೆಚ್ಚಿನ</w>": 8064,
  "ಹೆಚ್ಚು</w>": 8065,
  "ಹೆಜ್": 8066,
  "ಹೆಜ್ಜೆ": 8067,
  "ಹೆಜ್ಜೆ</w>": 8068,
  "ಹೆಣ": 8069,
  "ಹೆಣೆ": 8070,
  "ಹೆಣ್ಣ": 8071,
  "ಹೆಣ್ಣಿನ</w>": 8072,
  "ಹೆಣ್ಣು": 8073,
  "ಹೆಣ್ಣು</w>": 8074,
  "ಹೆತ್ತ</w>": 8075,
  "ಹೆದ": 8076,
  "ಹೆದರ": 8077,
  "ಹೆದರಿ</w>": 8078,
  "ಹೆಬ್ಬ": 8079,
  "ಹೆಮ್ಮ": 8080,
  "ಹೆಸ": 8081,
  "ಹೆಸರ": 8082,
  "ಹೆಸರಾ": 8083,
  "ಹೆಸರಾಂತ</w>": 8084,
  "ಹೆಸರಾದ</w>": 8085,
  "ಹೆಸರಿ": 8086,
  "ಹೆಸರಿಗೆ</w>": 8087,
  "ಹೆಸರಿನಲ್ಲಿ</w>": 8088,
  "ಹೆಸರು": 8089,
  "ಹೆಸರು</w>": 8090,
  "ಹೇ": 8091,
  "ಹೇಗ": 8092,
  "ಹೇಗಾ": 8093,
  "ಹೇಗಿ": 8094,
  "ಹೇಗೂ</w>": 8095,
  "ಹೇಗೆ</w>": 8096,
  "ಹೇಗೆ?</w>": 8097,
  "ಹೇಗೋ</w>": 8098,
  "ಹೇಳ": 8099,
  "ಹೇಳ</w>": 8100,
  "ಹೇಳಲು</w>": 8101,
  "ಹೇಳಿ": 8102,
  "ಹೇಳಿ,</w>": 8103,
  "ಹೇಳಿ</w>": 8104,
  "ಹೇಳಿಕೊಳ್ಳ": 8105,
  "ಹೇಳಿದ": 8106,
  "ಹೇಳಿದ.</w>": 8107,
  "ಹೇಳಿದ</w>": 8108,
  "ಹೇಳಿದಂತೆ</w>": 8109,
  "ಹೇಳಿದರು.</w>": 8110,
  "ಹೇಳಿದರು</w>": 8111,
  "ಹೇಳಿದರೂ</w>": 8112,
  "ಹೇಳಿದರೆ</w>": 8113,
  "ಹೇಳಿದಾಗ,</w>": 8114,
  "ಹೇಳಿದಾಗ</w>": 8115,
  "ಹೇಳಿದೆ,</w>": 8116,
  "ಹೇಳಿದೆ.</w>": 8117,
  "ಹೇಳಿದೆ</w>": 8118,
  "ಹೇಳಿದ್ದ": 8119,
  "ಹೇಳಿದ್ದ</w>": 8120,
  "ಹೇಳಿದ್ದರು.</w>": 8121,
  "ಹೇಳಿದ್ದು</w>": 8122,
  "ಹೇಳು": 8123,
  "ಹೇಳು</w>": 8124,
  "ಹೇಳುತ್ತಾ": 8125,
  "ಹೇಳುತ್ತಾ</w>": 8126,
  "ಹೇಳುತ್ತಿದ್ದ": 8127,
  "ಹೇಳುತ್ತಿದ್ದ</w>": 8128,
  "ಹೇಳುತ್ತಿದ್ದರು.</w>": 8129,
  "ಹೇಳುವ": 8130,
  "ಹೇಳುವ</w>": 8131,
  "ಹೇಳುವುದ": 8132,
  "ಹೇಳುವುದು</w>": 8133,
  "ಹೇಳ್": 8134,
  "ಹೈ": 8135,
  "ಹೈಸ್ಕೂ": 8136,
  "ಹೊ": 8137,
  "ಹೊ</w>": 8138,
  "ಹೊಂಗೆ</w>": 8139,
  "ಹೊಂದ": 8140,
  "ಹೊಂದಿ": 8141,
  "ಹೊಕ್ಕ": 8142,
  "ಹೊಕ್ಕು": 8143,
  "ಹೊಕ್ಕುಳಲ್ಲಿ</w>": 8144,
  "ಹೊಗಳ": 8145,
  "ಹೊಟ್ಟ": 8146,
  "ಹೊಟ್ಟಿ</w>": 8147,
  "ಹೊಟ್ಟೆ": 8148,
  "ಹೊಟ್ಟೆ</w>": 8149,
  "ಹೊಟ್ಟೆಗಾಗಿ</w>": 8150,
  "ಹೊಟ್ಟೆಯಲ್ಲಿ</w>": 8151,
  "ಹೊಡೆ": 8152,
  "ಹೊಡೆದು</w>": 8153,
  "ಹೊಡೆಯ": 8154,
  "ಹೊಣೆ": 8155,
  "ಹೊಣೆಯ": 8156,
  "ಹೊಣೆಯೊ</w>": 8157,
  "ಹೊತ್ತ": 8158,
  "ಹೊತ್ತಾ": 8159,
  "ಹೊತ್ತಿ": 8160,
  "ಹೊತ್ತಿಗೆ</w>": 8161,
  "ಹೊತ್ತಿನ</w>": 8162,
  "ಹೊತ್ತಿನಲ್ಲಿ</w>": 8163,
  "ಹೊತ್ತು</w>": 8164,
  "ಹೊತ್ತುಕೊಂಡು</w>": 8165,
  "ಹೊಯ್": 8166,
  "ಹೊರ": 8167,
  "ಹೊರ</w>": 8168,
  "ಹೊರಗಿ": 8169,
  "ಹೊರಗಿನ</w>": 8170,
  "ಹೊರಗೆ</w>": 8171,
  "ಹೊರಟ": 8172,
  "ಹೊರಟ</w>": 8173,
  "ಹೊರಟರು.</w>": 8174,
  "ಹೊರಟು</w>": 8175,
  "ಹೊರಡ": 8176,
  "ಹೊರತು</w>": 8177,
  "ಹೊರಹೊ": 8178,
  "ಹೊರಹೊಮ್ಮ": 8179,
  "ಹೊರೆ": 8180,
  "ಹೊಲ": 8181,
  "ಹೊಲ</w>": 8182,
  "ಹೊಳ": 8183,
  "ಹೊಳೆ": 8184,
  "ಹೊಳೆ</w>": 8185,
  "ಹೊಳೆಯ": 8186,
  "ಹೊಸ": 8187,
  "ಹೊಸ</w>": 8188,
  "ಹೊಸದ": 8189,
  "ಹೊಸದರಲ್ಲಿ</w>": 8190,
  "ಹೊಸದಾಗಿ</w>": 8191,
  "ಹೊಸಹ": 8192,
  "ಹೋ": 8193,
  "ಹೋಗ": 8194,
  "ಹೋಗಲು</w>": 8195,
  "ಹೋಗಿ": 8196,
  "ಹೋಗಿ,</w>": 8197,
  "ಹೋಗಿ</w>": 8198,
  "ಹೋಗಿತ್ತು.</w>": 8199,
  "ಹೋಗಿದ್ದ": 8200,
  "ಹೋಗಿದ್ದ</w>": 8201,
  "ಹೋಗಿದ್ದರು.</w>": 8202,
  "ಹೋಗಿದ್ದಾಗ</w>": 8203,
  "ಹೋಗು": 8204,
  "ಹೋಗು</w>": 8205,
  "ಹೋಗುತ್ತ": 8206,
  "ಹೋಗುತ್ತಿದ್ದ": 8207,
  "ಹೋಗುತ್ತಿದ್ದ</w>": 8208,
  "ಹೋಗುತ್ತಿದ್ದರು.</w>": 8209,
  "ಹೋಗುವ": 8210,
  "ಹೋಗುವ</w>": 8211,
  "ಹೋಗುವಾಗ</w>": 8212,
  "ಹೋಗುವುದು</w>": 8213,
  "ಹೋಗ್": 8214,
  "ಹೋಗ್ಲಿ</w>": 8215,
  "ಹೋಟಿ": 8216,
  "ಹೋಟೀ": 8217,
  "ಹೋಟೇ": 8218,
  "ಹೋದ": 8219,
  "ಹೋದ.</w>": 8220,
  "ಹೋದ</w>": 8221,
  "ಹೋದರು.</w>": 8222,
  "ಹೋದರೂ</w>": 8223,
  "ಹೋದರೆ</w>": 8224,
  "ಹೋದಾಗ</w>": 8225,
  "ಹೋದೆ": 8226,
  "ಹೋದೆ.</w>": 8227,
  "ಹೋದೆ</w>": 8228,
  "ಹೋಯಿತ": 8229,
  "ಹೋಯಿತು.</w>": 8230,
  "ಹೋಯಿತು</w>": 8231,
  "ಹೋಯ್": 8232,
  "ಹೋರಾ": 8233,
  "ಹೋರಾಟ": 8234,
  "ಹೋರಾಟದ</w>": 8235,
  "ಹೌ": 8236,
  "ಹ್": 8237,
  "ಹ್ಮ": 8238,
  "ಹ್ವಾ": 8239,
  "ಹ೦": 8240,
  "ಾ": 8241,
  "ಾ</w>": 8242,
  "ಾಂತ": 8243,
  "ಾಂತರ</w>": 8244,
  "ಾಕೆ</w>": 8245,
  "ಾಗ": 8246,
  "ಾಗ,</w>": 8247,
  "ಾಗ--</w>": 8248,
  "ಾಗ.</w>": 8249,
  "ಾಗ</w>": 8250,
  "ಾಗಲಿ,</w>": 8251,
  "ಾಗಲಿ</w>": 8252,
  "ಾಗಲಿಲ್ಲ.</w>": 8253,
  "ಾಗಲೂ</w>": 8254,
  "ಾಗಲೇ</w>": 8255,
  "ಾಗಿ": 8256,
  "ಾಗಿ,</w>": 8257,
  "ಾಗಿ.</w>": 8258,
  "ಾಗಿ</w>": 8259,
  "ಾಗಿತ್ತು.</w>": 8260,
  "ಾಗಿದೆ.</w>": 8261,
  "ಾಗಿದ್ದ": 8262,
  "ಾಗಿದ್ದ</w>": 8263,
  "ಾಗಿಯೇ</w>": 8264,
  "ಾಗು</w>": 8265,
  "ಾಗುತ್ತ": 8266,
  "ಾಗುತ್ತದೆ.</w>": 8267,
  "ಾಗುತ್ತಿತ್ತು.</w>": 8268,
  "ಾಗುವ</w>": 8269,
  "ಾಗುವುದು</w>": 8270,
  "ಾಗೆ</w>": 8271,
  "ಾಗ್": 8272,
  "ಾಗ್ಗೆ</w>": 8273,
  "ಾಗ್ಯ</w>": 8274,
  "ಾಡ": 8275,
  "ಾತನ</w>": 8276,
  "ಾತ್‌</w>": 8277,
  "ಾದ": 8278,
  "ಾದ</w>": 8279,
  "ಾದರೂ</w>": 8280,
  "ಾದರೆ</w>": 8281,
  "ಾನೆ</w>": 8282,
  "ಾಯ": 8283,
  "ಾಯಿತು.</w>": 8284,
  "ಾರ": 8285,
  "ಾರ</w>": 8286,
  "ಾರಿ</w>": 8287,
  "ಿ": 8288,
  "ಿ'</w>": 8289,
  "ಿ,</w>": 8290,
  "ಿ-": 8291,
  "ಿ.</w>": 8292,
  "ಿ</w>": 8293,
  "ಿ?</w>": 8294,
  "ಿಂ</w>": 8295,
  "ಿಂದ": 8296,
  "ಿಂದ</w>": 8297,
  "ಿಂದಲಿ</w>": 8298,
  "ಿಂದಲೇ</w>": 8299,
  "ಿಂದೆ</w>": 8300,
  "ಿಕ</w>": 8301,
  "ಿಕೊಂಡ": 8302,
  "ಿಕೊಂಡು</w>": 8303,
  "ಿಕೊಳ್ಳ": 8304,
  "ಿಗೂ</w>": 8305,
  "ಿಗೆ</w>": 8306,
  "ಿಟ್ಟ": 8307,
  "ಿಟ್ಟು</w>": 8308,
  "ಿತ": 8309,
  "ಿತ</w>": 8310,
  "ಿತವಾಗ": 8311,
  "ಿತವಾಗಿ</w>": 8312,
  "ಿತಿ</w>": 8313,
  "ಿತು,</w>": 8314,
  "ಿತು.</w>": 8315,
  "ಿತು</w>": 8316,
  "ಿತೋ</w>": 8317,
  "ಿತ್ತು.</w>": 8318,
  "ಿತ್ತು</w>": 8319,
  "ಿದ": 8320,
  "ಿದ.</w>": 8321,
  "ಿದ</w>": 8322,
  "ಿದಂತೆ</w>": 8323,
  "ಿದನ</w>": 8324,
  "ಿದರು.</w>": 8325,
  "ಿದರು</w>": 8326,
  "ಿದರೆ</w>": 8327,
  "ಿದಾ": 8328,
  "ಿದಾಗ</w>": 8329,
  "ಿದೀ": 8330,
  "ಿದು": 8331,
  "ಿದು.</w>": 8332,
  "ಿದು</w>": 8333,
  "ಿದೆ": 8334,
  "ಿದೆ'</w>": 8335,
  "ಿದೆ)</w>": 8336,
  "ಿದೆ,</w>": 8337,
  "ಿದೆ-</w>": 8338,
  "ಿದೆ.</w>": 8339,
  "ಿದೆ;</w>": 8340,
  "ಿದೆ</w>": 8341,
  "ಿದೆ?</w>": 8342,
  "ಿದೆಕೊ</w>": 8343,
  "ಿದೆಯ": 8344,
  "ಿದೆವು.</w>": 8345,
  "ಿದೇ": 8346,
  "ಿದ್": 8347,
  "ಿದ್ದ": 8348,
  "ಿದ್ದ,</w>": 8349,
  "ಿದ್ದ.</w>": 8350,
  "ಿದ್ದ</w>": 8351,
  "ಿದ್ದನ್ನು</w>": 8352,
  "ಿದ್ದರಿಂದ</w>": 8353,
  "ಿದ್ದರು,</w>": 8354,
  "ಿದ್ದರು.</w>": 8355,
  "ಿದ್ದರು</w>": 8356,
  "ಿದ್ದರೂ</w>": 8357,
  "ಿದ್ದರೆ</w>": 8358,
  "ಿದ್ದಳು.</w>": 8359,
  "ಿದ್ದವು.</w>": 8360,
  "ಿದ್ದಷ್ಟು</w>": 8361,
  "ಿದ್ದಾ": 8362,
  "ಿದ್ದಾ</w>": 8363,
  "ಿದ್ದಾಗ": 8364,
  "ಿದ್ದಾಗ</w>": 8365,
  "ಿದ್ದಾಗಲೇ</w>": 8366,
  "ಿದ್ದಾನೆ</w>": 8367,
  "ಿದ್ದಾರೆ": 8368,
  "ಿದ್ದಾರೆ.</w>": 8369,
  "ಿದ್ದಾರೆ</w>": 8370,
  "ಿದ್ದೀ": 8371,
  "ಿದ್ದು": 8372,
  "ಿದ್ದು,</w>": 8373,
  "ಿದ್ದು</w>": 8374,
  "ಿದ್ದುದು</w>": 8375,
  "ಿದ್ದೂ</w>": 8376,
  "ಿದ್ದೆ.</w>": 8377,
  "ಿದ್ದೆ</w>": 8378,
  "ಿದ್ದೇ": 8379,
  "ಿದ್ದೇ</w>": 8380,
  "ಿದ್ದೇನೆ.</w>": 8381,
  "ಿದ್ರು</w>": 8382,
  "ಿದ್ರೆ</w>": 8383,
  "ಿನ": 8384,
  "ಿನ</w>": 8385,
  "ಿನಲ್ಲಿ</w>": 8386,
  "ಿನಿಂದ</w>": 8387,
  "ಿಬ್ಬ": 8388,
  "ಿಯ": 8389,
  "ಿಯ</w>": 8390,
  "ಿಯಂಗೆ</w>": 8391,
  "ಿಯನ್ನು</w>": 8392,
  "ಿಯರ</w>": 8393,
  "ಿಯಲಿ</w>": 8394,
  "ಿಯಲ್ಲಿ</w>": 8395,
  "ಿಯಾಗ": 8396,
  "ಿಯಾಗಿ</w>": 8397,
  "ಿಯಿಂದ</w>": 8398,
  "ಿಯು</w>": 8399,
  "ಿಯೂ</w>": 8400,
  "ಿಯೆ</w>": 8401,
  "ಿಯೇ": 8402,
  "ಿಯೇ</w>": 8403,
  "ಿಯೊಳು</w>": 8404,
  "ಿಯೋ</w>": 8405,
  "ಿರ": 8406,
  "ಿರ</w>": 8407,
  "ಿರಬಹು": 8408,
  "ಿರಬೇಕು.</w>": 8409,
  "ಿರಯ್ಯ</w>": 8410,
  "ಿರಲಿಲ್ಲ": 8411,
  "ಿರಲಿಲ್ಲ...</w>": 8412,
  "ಿರಲಿಲ್ಲ.</w>": 8413,
  "ಿರಲಿಲ್ಲ</w>": 8414,
  "ಿರಲು</w>": 8415,
  "ಿರಿ": 8416,
  "ಿರಿ</w>": 8417,
  "ಿರು": 8418,
  "ಿರು</w>": 8419,
  "ಿರುಗ": 8420,
  "ಿರುಗಿ</w>": 8421,
  "ಿರುತ್ತ": 8422,
  "ಿರುವ": 8423,
  "ಿರುವ</w>": 8424,
  "ಿರುವಾಗ</w>": 8425,
  "ಿರುವುದ": 8426,
  "ಿರುವುದನ್ನು</w>": 8427,
  "ಿರುವುದು</w>": 8428,
  "ಿರೊ</w>": 8429,
  "ಿರೋ": 8430,
  "ಿರೋ</w>": 8431,
  "ಿಲ್ಲ": 8432,
  "ಿಲ್ಲ.</w>": 8433,
  "ಿಲ್ಲ</w>": 8434,
  "ಿಲ್ಲದ</w>": 8435,
  "ಿಲ್ಲದೆ</w>": 8436,
  "ಿವು.</w>": 8437,
  "ಿಷ್ಟು</w>": 8438,
  "ಿಸ": 8439,
  "ಿಸದೆ</w>": 8440,
  "ಿಸಲು</w>": 8441,
  "ಿಸಾ": 8442,
  "ಿಸಿ": 8443,
  "ಿಸಿ,</w>": 8444,
  "ಿಸಿ</w>": 8445,
  "ಿಸಿಕೊ": 8446,
  "ಿಸಿಕೊಂಡ": 8447,
  "ಿಸಿಕೊಂಡ</w>": 8448,
  "ಿಸಿಕೊಂಡು</w>": 8449,
  "ಿಸಿಕೊಟ್ಟ": 8450,
  "ಿಸಿಕೊಳ್ಳ": 8451,
  "ಿಸಿಕೊಳ್ಳಲು</w>": 8452,
  "ಿಸಿತು.</w>": 8453,
  "ಿಸಿದ": 8454,
  "ಿಸಿದ.</w>": 8455,
  "ಿಸಿದ</w>": 8456,
  "ಿಸಿದನ</w>": 8457,
  "ಿಸಿದರು,</w>": 8458,
  "ಿಸಿದರು.</w>": 8459,
  "ಿಸಿದರು</w>": 8460,
  "ಿಸಿದರೆ</w>": 8461,
  "ಿಸಿದಳು.</w>": 8462,
  "ಿಸಿದವನ</w>": 8463,
  "ಿಸಿದವರು</w>": 8464,
  "ಿಸಿದಾಗ</w>": 8465,
  "ಿಸಿದೆ.</w>": 8466,
  "ಿಸಿದೆ</w>": 8467,
  "ಿಸಿದೆವು.</w>": 8468,
  "ಿಸಿದ್ದ": 8469,
  "ಿಸಿದ್ದ</w>": 8470,
  "ಿಸಿದ್ದರು.</w>": 8471,
  "ಿಸಿದ್ದಾರೆ.</w>": 8472,
  "ಿಸಿರುವ</w>": 8473,
  "ಿಸು": 8474,
  "ಿಸು</w>": 8475,
  "ಿಸುತ</w>": 8476,
  "ಿಸುತ್ತ": 8477,
  "ಿಸುತ್ತ</w>": 8478,
  "ಿಸುತ್ತದೆ.</w>": 8479,
  "ಿಸುತ್ತಾ</w>": 8480,
  "ಿಸುತ್ತಿತ್ತು.</w>": 8481,
  "ಿಸುತ್ತಿದ್ದ": 8482,
  "ಿಸುತ್ತಿದ್ದ</w>": 8483,
  "ಿಸುತ್ತಿದ್ದರು.</w>": 8484,
  "ಿಸುವ": 8485,
  "ಿಸುವ,</w>": 8486,
  "ಿಸುವ</w>": 8487,
  "ಿಸುವಾಗ</w>": 8488,
  "ಿಸುವುದು</w>": 8489,
  "ಿಸೊ</w>": 8490,
  "ಿಸ್": 8491,
  "ಿಸ್ಟ": 8492,
  "ಿ೦ದ": 8493,
  "ಿ೦ದ</w>": 8494,
  "ೀ": 8495,
  "ೀ</w>": 8496,
  "ೀಕ": 8497,
  "ೀಕ್ಷ": 8498,
  "ೀಗ</w>": 8499,
  "ೀತೆ</w>": 8500,
  "ೀನ</w>": 8501,
  "ೀಯ": 8502,
  "ೀಯ</w>": 8503,
  "ೀಲಿ</w>": 8504,
  "ು": 8505,
  "ು'</w>": 8506,
  "ು)</w>": 8507,
  "ು,</w>": 8508,
  "ು-": 8509,
  "ು--</w>": 8510,
  "ು-</w>": 8511,
  "ು...</w>": 8512,
  "ು.</w>": 8513,
  "ು</w>": 8514,
  "ು?</w>": 8515,
  "ುಂಟು</w>": 8516,
  "ುಂಟೆ</w>": 8517,
  "ುಕೊಂಡ": 8518,
  "ುಕೊಂಡ.</w>": 8519,
  "ುಕೊಂಡ</w>": 8520,
  "ುಕೊಂಡಿದ್ದ</w>": 8521,
  "ುಕೊಂಡು</w>": 8522,
  "ುಕೊಳ್ಳ": 8523,
  "ುಗ": 8524,
  "ುಗಳ</w>": 8525,
  "ುತ": 8526,
  "ುತ</w>": 8527,
  "ುತಿ": 8528,
  "ುತಿರಲು</w>": 8529,
  "ುತಿರೆ</w>": 8530,
  "ುತ್ತ": 8531,
  "ುತ್ತ</w>": 8532,
  "ುತ್ತದೆ": 8533,
  "ುತ್ತದೆ,</w>": 8534,
  "ುತ್ತದೆ.</w>": 8535,
  "ುತ್ತದೆ;</w>": 8536,
  "ುತ್ತದೆ</w>": 8537,
  "ುತ್ತಲೇ</w>": 8538,
  "ುತ್ತವೆ.</w>": 8539,
  "ುತ್ತಾ": 8540,
  "ುತ್ತಾ,</w>": 8541,
  "ುತ್ತಾ</w>": 8542,
  "ುತ್ತಾನೆ.</w>": 8543,
  "ುತ್ತಾರೆ.</w>": 8544,
  "ುತ್ತಾರೆ</w>": 8545,
  "ುತ್ತಿ": 8546,
  "ುತ್ತಿ</w>": 8547,
  "ುತ್ತಿತ್ತು.</w>": 8548,
  "ುತ್ತಿದ್ದ": 8549,
  "ುತ್ತಿದ್ದ.</w>": 8550,
  "ುತ್ತಿದ್ದ</w>": 8551,
  "ುತ್ತಿದ್ದರು.</w>": 8552,
  "ುತ್ತಿದ್ದಳು.</w>": 8553,
  "ುತ್ತಿದ್ದವು.</w>": 8554,
  "ುತ್ತಿದ್ದಾ": 8555,
  "ುತ್ತಿದ್ದಾಗ</w>": 8556,
  "ುತ್ತಿದ್ದಾಗೆ</w>": 8557,
  "ುತ್ತಿದ್ದು": 8558,
  "ುತ್ತಿದ್ದು</w>": 8559,
  "ುತ್ತಿದ್ದೆ.</w>": 8560,
  "ುತ್ತಿದ್ದೆ</w>": 8561,
  "ುತ್ತಿದ್ದೊ.</w>": 8562,
  "ುತ್ತಿರಲಿಲ್ಲ.</w>": 8563,
  "ುತ್ತಿರು": 8564,
  "ುತ್ತಿರುವ": 8565,
  "ುತ್ತಿರುವ</w>": 8566,
  "ುತ್ತಿರುವಾಗ": 8567,
  "ುತ್ತಿರುವಾಗಲೇ</w>": 8568,
  "ುತ್ತೀ": 8569,
  "ುತ್ತು</w>": 8570,
  "ುತ್ತೇ": 8571,
  "ುತ್ತೇನೆ": 8572,
  "ುತ್ತೇನೆ'</w>": 8573,
  "ುತ್ತೇನೆ.</w>": 8574,
  "ುತ್ತೇನೆ</w>": 8575,
  "ುತ್ತೇನೆ?</w>": 8576,
  "ುತ್ತೇವೆ.</w>": 8577,
  "ುದ": 8578,
  "ುದರಿಂದ</w>": 8579,
  "ುನ</w>": 8580,
  "ುಪಿತ</w>": 8581,
  "ುಬಿಟ್ಟ": 8582,
  "ುರ</w>": 8583,
  "ುಳ್ಳ": 8584,
  "ುಳ್ಳ</w>": 8585,
  "ುಳ್ಳವನು</w>": 8586,
  "ುವ": 8587,
  "ುವ,</w>": 8588,
  "ುವ</w>": 8589,
  "ುವಂತ": 8590,
  "ುವಂತಿಲ್ಲ.</w>": 8591,
  "ುವಂತೆ,</w>": 8592,
  "ುವಂತೆ</w>": 8593,
  "ುವಂಥ": 8594,
  "ುವನ</w>": 8595,
  "ುವನು</w>": 8596,
  "ುವನ್ನು</w>": 8597,
  "ುವರು</w>": 8598,
  "ುವವರು</w>": 8599,
  "ುವಷ್ಟು</w>": 8600,
  "ುವಾ": 8601,
  "ುವಾಗ": 8602,
  "ುವಾಗ</w>": 8603,
  "ುವಾಗಿ</w>": 8604,
  "ುವಿ": 8605,
  "ುವಿಗೆ</w>": 8606,
  "ುವಿನ</w>": 8607,
  "ುವು": 8608,
  "ುವು</w>": 8609,
  "ುವುದ": 8610,
  "ುವುದ</w>": 8611,
  "ುವುದಕ್ಕೆ</w>": 8612,
  "ುವುದನ್ನು</w>": 8613,
  "ುವುದರಲ್ಲಿ</w>": 8614,
  "ುವುದಿ": 8615,
  "ುವುದಿಲ್ಲ": 8616,
  "ುವುದಿಲ್ಲ.</w>": 8617,
  "ುವುದಿಲ್ಲ</w>": 8618,
  "ುವುದು": 8619,
  "ುವುದು,</w>": 8620,
  "ುವುದು.</w>": 8621,
  "ುವುದು</w>": 8622,
  "ುವುದು?</w>": 8623,
  "ುವುದೂ</w>": 8624,
  "ುವುದೆ": 8625,
  "ುವುದೆ</w>": 8626,
  "ುವುದೆಂದು</w>": 8627,
  "ುವುದೇ": 8628,
  "ುವುದೇ</w>": 8629,
  "ುವೆ": 8630,
  "ುವೆ</w>": 8631,
  "ುವ್": 8632,
  "ೂ": 8633,
  "ೂ,</w>": 8634,
  "ೂ.</w>": 8635,
  "ೂ</w>": 8636,
  "ೂಪ": 8637,
  "ೂರ": 8638,
  "ೂರ</w>": 8639,
  "ೂರಿ": 8640,
  "ೂರಿ</w>": 8641,
  "ೂರಿಗೆ</w>": 8642,
  "ೂರಿನ</w>": 8643,
  "ೂರು</w>": 8644,
  "ೂವರೆ</w>": 8645,
  "ೃ": 8646,
  "ೃ</w>": 8647,
  "ೆ": 8648,
  "ೆ!</w>": 8649,
  "ೆ'</w>": 8650,
  "ೆ)</w>": 8651,
  "ೆ,</w>": 8652,
  "ೆ-": 8653,
  "ೆ--</w>": 8654,
  "ೆ-</w>": 8655,
  "ೆ...</w>": 8656,
  "ೆ.</w>": 8657,
  "ೆ;</w>": 8658,
  "ೆ</w>": 8659,
  "ೆ?</w>": 8660,
  "ೆಂದ": 8661,
  "ೆಂದರೆ</w>": 8662,
  "ೆಂದು</w>": 8663,
  "ೆಂದೂ</w>": 8664,
  "ೆಂಬ": 8665,
  "ೆಂಬ</w>": 8666,
  "ೆಗಳ": 8667,
  "ೆಗಳ</w>": 8668,
  "ೆಗಳನ್ನು</w>": 8669,
  "ೆಗಳಲ್ಲಿ</w>": 8670,
  "ೆಗಳು</w>": 8671,
  "ೆಗಾಗಿ</w>": 8672,
  "ೆಗೆ</w>": 8673,
  "ೆತಾಳ</w>": 8674,
  "ೆತ್ತ": 8675,
  "ೆತ್ತಿ</w>": 8676,
  "ೆನ": 8677,
  "ೆನಯ್ಯ</w>": 8678,
  "ೆನಲು</w>": 8679,
  "ೆನು</w>": 8680,
  "ೆನುತ</w>": 8681,
  "ೆನೊ</w>": 8682,
  "ೆನ್ನ</w>": 8683,
  "ೆಯ": 8684,
  "ೆಯ</w>": 8685,
  "ೆಯಂತೆ</w>": 8686,
  "ೆಯನು</w>": 8687,
  "ೆಯನ್ನು</w>": 8688,
  "ೆಯನ್ನೂ</w>": 8689,
  "ೆಯಲಿ</w>": 8690,
  "ೆಯಲ್ಲ": 8691,
  "ೆಯಲ್ಲಿ</w>": 8692,
  "ೆಯಾ": 8693,
  "ೆಯಾಗ": 8694,
  "ೆಯಾಗಿ</w>": 8695,
  "ೆಯಾದ</w>": 8696,
  "ೆಯಿ": 8697,
  "ೆಯಿಂದ</w>": 8698,
  "ೆಯು": 8699,
  "ೆಯು</w>": 8700,
  "ೆಯೂ</w>": 8701,
  "ೆಯೆ</w>": 8702,
  "ೆಯೇ</w>": 8703,
  "ೆಯೊ</w>": 8704,
  "ೆಯೊಳ": 8705,
  "ೆಯೊಳಗೆ</w>": 8706,
  "ೆರ": 8707,
  "ೆರಡ": 8708,
  "ೆರಡು</w>": 8709,
  "ೆರು.</w>": 8710,
  "ೆಲೊ</w>": 8711,
  "ೆಲ್ಲ": 8712,
  "ೆಲ್ಲ</w>": 8713,
  "ೆಲ್ಲಾ</w>": 8714,
  "ೆವು": 8715,
  "ೆವು.</w>": 8716,
  "ೇ": 8717,
  "ೇ,</w>": 8718,
  "ೇ.</w>": 8719,
  "ೇ</w>": 8720,
  "ೇ?</w>": 8721,
  "ೇಕ</w>": 8722,
  "ೇಕೆ</w>": 8723,
  "ೇಖ": 8724,
  "ೇನ</w>": 8725,
  "ೇನು</w>": 8726,
  "ೇನೂ</w>": 8727,
  "ೇನೆ.</w>": 8728,
  "ೇನೆ</w>": 8729,
  "ೇನೊ</w>": 8730,
  "ೇನೋ</w>": 8731,
  "ೇಯ": 8732,
  "ೇಯ</w>": 8733,
  "ೇರಿ</w>": 8734,
  "ೇಳ": 8735,
  "ೇಳು</w>": 8736,
  "ೇಶ": 8737,
  "ೇಶ</w>": 8738,
  "ೈ": 8739,
  "ೈ,</w>": 8740,
  "ೈ</w>": 8741,
  "ೈದಿ": 8742,
  "ೈದು</w>": 8743,
  "ೈಲ್ಲ</w>": 8744,
  "ೈಸಿ</w>": 8745,
  "ೊ": 8746,
  "ೊ,</w>": 8747,
  "ೊ-</w>": 8748,
  "ೊ.</w>": 8749,
  "ೊ</w>": 8750,
  "ೊಂಡು</w>": 8751,
  "ೊಂದ": 8752,
  "ೊಂದನ್ನು</w>": 8753,
  "ೊಂದಿ": 8754,
  "ೊಂದಿಗೆ</w>": 8755,
  "ೊಂದು</w>": 8756,
  "ೊಡ": 8757,
  "ೊಡನೆ</w>": 8758,
  "ೊಡೆ</w>": 8759,
  "ೊಡೆಯ</w>": 8760,
  "ೊತ್ತ": 8761,
  "ೊಪ್ಪ": 8762,
  "ೊಬ್ಬ": 8763,
  "ೊಬ್ಬ</w>": 8764,
  "ೊಬ್ಬರ</w>": 8765,
  "ೊಬ್ಬರು</w>": 8766,
  "ೊಬ್ಬಳು</w>": 8767,
  "ೊಮ್ಮೆ</w>": 8768,
  "ೊಯ್": 8769,
  "ೊಯ್ದ</w>": 8770,
  "ೊಳ": 8771,
  "ೊಳಗ": 8772,
  "ೊಳಗಿ": 8773,
  "ೊಳಗಿಂದ</w>": 8774,
  "ೊಳಗಿನ</w>": 8775,
  "ೊಳಗೆ</w>": 8776,
  "ೊಳಿ": 8777,
  "ೊಳು</w>": 8778,
  "ೋ": 8779,
  "ೋ,</w>": 8780,
  "ೋ-": 8781,
  "ೋ</w>": 8782,
  "ೋಕೆ</w>": 8783,
  "ೋಡ": 8784,
  "ೋಣ": 8785,
  "ೋಣ'</w>": 8786,
  "ೋಣ</w>": 8787,
  "ೋತ್": 8788,
  "ೋತ್ತ": 8789,
  "ೋದ": 8790,
  "ೋದಿ": 8791,
  "ೋದಿಕ್ಕೆ</w>": 8792,
  "ೋದು": 8793,
  "ೋದು</w>": 8794,
  "ೋನು</w>": 8795,
  "ೋಪ": 8796,
  "ೋರು</w>": 8797,
  "ೌ": 8798,
  "ೌಕಿ": 8799,
  "ೌಪ": 8800,
  "ೌರಾ": 8801,
  "್": 8802,
  "್</w>": 8803,
  "್ಟ": 8804,
  "್ಣ": 8805,
  "್ಪ": 8806,
  "್ಪ</w>": 8807,
  "್ಮ": 8808,
  "್ಮ</w>": 8809,
  "್ಮಾ": 8810,
  "್ಮಿ</w>": 8811,
  "್ಮೆ</w>": 8812,
  "್ಯ": 8813,
  "್ಯ,</w>": 8814,
  "್ಯ</w>": 8815,
  "್ಯದ</w>": 8816,
  "್ಯವನ್ನು</w>": 8817,
  "್ಯಾ": 8818,
  "್ಯಾ</w>": 8819,
  "್ರ": 8820,
  "್ರ</w>": 8821,
  "್ರಹ": 8822,
  "್ರಾ": 8823,
  "್ರಿ": 8824,
  "್ರಿ</w>": 8825,
  "್ರು</w>": 8826,
  "್ರೂ</w>": 8827,
  "್ರೆ": 8828,
  "್ರೆ</w>": 8829,
  "್ಳು</w>": 8830,
  "್ಸ್‌</w>": 8831,
  "್‌": 8832,
  "್‌,</w>": 8833,
  "್‌</w>": 8834,
  "೦": 8835,
  "೦.</w>": 8836,
  "೦</w>": 8837,
  "೦॥</w>": 8838,
  "೦ಗ": 8839,
  "೦ಗ</w>": 8840,
  "೦ಗಳ": 8841,
  "೦ಗಳ</w>": 8842,
  "೦ಟ": 8843,
  "೦ಡ": 8844,
  "೦ಡ</w>": 8845,
  "೦ತ": 8846,
  "೦ತ</w>": 8847,
  "೦ತರ</w>": 8848,
  "೦ದ": 8849,
  "೦ದ</w>": 8850,
  "೦ದರೆ</w>": 8851,
  "೦ದು</w>": 8852,
  "೦ದ್ರ": 8853,
  "೦ದ್ರ</w>": 8854,
  "೦ದ್ರಿಯ": 8855,
  "೦ಬ</w>": 8856,
  "೦೦": 8857,
  "೧": 8858,
  "೧)</w>": 8859,
  "೧.</w>": 8860,
  "೧</w>": 8861,
  "೧॥</w>": 8862,
  "೧೦": 8863,
  "೧೦.</w>": 8864,
  "೧೦</w>": 8865,
  "೧೧": 8866,
  "೧೧.</w>": 8867,
  "೧೧</w>": 8868,
  "೧೨": 8869,
  "೧೨</w>": 8870,
  "೧೩": 8871,
  "೧೩</w>": 8872,
  "೧೪": 8873,
  "೧೫": 8874,
  "೧೫</w>": 8875,
  "೧೬": 8876,
  "೧೬</w>": 8877,
  "೧೭": 8878,
  "೧೭</w>": 8879,
  "೧೮": 8880,
  "೧೮</w>": 8881,
  "೧೯": 8882,
  "೧೯</w>": 8883,
  "೧೯೩": 8884,
  "೧೯೪": 8885,
  "೧೯೪೨": 8886,
  "೧೯೫": 8887,
  "೧೯೮": 8888,
  "೧೯೯": 8889,
  "೨": 8890,
  "೨)</w>": 8891,
  "೨,</w>": 8892,
  "೨.</w>": 8893,
  "೨</w>": 8894,
  "೨॥</w>": 8895,
  "೨೦": 8896,
  "೨೦</w>": 8897,
  "೨೧</w>": 8898,
  "೨೨": 8899,
  "೨೨</w>": 8900,
  "೨೩": 8901,
  "೨೩</w>": 8902,
  "೨೪": 8903,
  "೨೪</w>": 8904,
  "೨೫": 8905,
  "೨೫</w>": 8906,
  "೨೬": 8907,
  "೨೬</w>": 8908,
  "೨೭": 8909,
  "೨೭</w>": 8910,
  "೨೮": 8911,
  "೨೮</w>": 8912,
  "೨೯": 8913,
  "೨೯</w>": 8914,
  "೩": 8915,
  "೩)</w>": 8916,
  "೩,</w>": 8917,
  "೩.</w>": 8918,
  "೩</w>": 8919,
  "೩೦": 8920,
  "೩೧": 8921,
  "೩೨": 8922,
  "೩೩": 8923,
  "೩೪": 8924,
  "೩೫": 8925,
  "೩೬": 8926,
  "೩೭": 8927,
  "೩೮": 8928,
  "೩೯": 8929,
  "೪": 8930,
  "೪,</w>": 8931,
  "೪.</w>": 8932,
  "೪</w>": 8933,
  "೪|</w>": 8934,
  "೪॥</w>": 8935,
  "೪೦": 8936,
  "೪೨": 8937,
  "೪೩": 8938,
  "೪೪": 8939,
  "೪೫": 8940,
  "೪೬": 8941,
  "೪೭": 8942,
  "೪೮": 8943,
  "೪೯": 8944,
  "೫": 8945,
  "೫%</w>": 8946,
  "೫.</w>": 8947,
  "೫</w>": 8948,
  "೫॥</w>": 8949,
  "೫ೇ</w>": 8950,
  "೫೦": 8951,
  "೫೩": 8952,
  "೫೪": 8953,
  "೫೫": 8954,
  "೫೫</w>": 8955,
  "೫೬": 8956,
  "೫೭": 8957,
  "೫೮": 8958,
  "೫೯": 8959,
  "೬": 8960,
  "೬,</w>": 8961,
  "೬.</w>": 8962,
  "೬</w>": 8963,
  "೬॥</w>": 8964,
  "೬೦": 8965,
  "೬೦</w>": 8966,
  "೬೩": 8967,
  "೬೪": 8968,
  "೬೫": 8969,
  "೬೬": 8970,
  "೬೭": 8971,
  "೬೮": 8972,
  "೬೯": 8973,
  "೭": 8974,
  "೭.</w>": 8975,
  "೭</w>": 8976,
  "೭॥</w>": 8977,
  "೭೦": 8978,
  "೭೩": 8979,
  "೭೫": 8980,
  "೭೭": 8981,
  "೭೮": 8982,
  "೭೯": 8983,
  "೮": 8984,
  "೮.</w>": 8985,
  "೮</w>": 8986,
  "೮೦": 8987,
  "೯": 8988,
  "೯.</w>": 8989,
  "೯</w>": 8990,
  "೯॥</w>": 8991,
  "​": 8992,
  "‌": 8993,
  "‌</w>": 8994,
  "–": 8995,
  "“": 8996,
  "“</w>": 8997,
  "”": 8998,
  "”</w>": 8999,
  "€": 9000,
  "₹": 9001
}